// Auto-generated model header

const unsigned char circle_detector_model[] = {
  0x1c, 0x00, 0x00, 0x00, 0x54, 0x46, 0x4c, 0x33, 0x14, 0x00, 0x20, 0x00, 0x1c, 0x00, 0x18, 0x00, 0x14, 0x00, 0x10, 0x00, 0x0c, 0x00, 0x00, 0x00, 0x08, 0x00, 0x04, 0x00, 0x14, 0x00, 0x00, 0x00, 0x1c, 0x00, 0x00, 0x00, 0x8c, 0x00, 0x00, 0x00, 0xe4, 0x00, 0x00, 0x00, 0xf4, 0x4c, 0x00, 0x00, 0x04, 0x4d, 0x00, 0x00, 0x90, 0x57, 0x00, 0x00, 0x03, 0x00, 0x00, 0x00, 0x01, 0x00, 0x00, 0x00, 0x04, 0x00, 0x00, 0x00, 0x76, 0xb1, 0xff, 0xff, 0x0c, 0x00, 0x00, 0x00, 0x1c, 0x00, 0x00, 0x00, 0x3c, 0x00, 0x00, 0x00, 0x0f, 0x00, 0x00, 0x00, 0x73, 0x65, 0x72, 0x76, 0x69, 0x6e, 0x67, 0x5f, 0x64, 0x65, 0x66, 0x61, 0x75, 0x6c, 0x74, 0x00, 0x01, 0x00, 0x00, 0x00, 0x04, 0x00, 0x00, 0x00, 0x90, 0xff, 0xff, 0xff, 0x13, 0x00, 0x00, 0x00, 0x04, 0x00, 0x00, 0x00, 0x08, 0x00, 0x00, 0x00, 0x6f, 0x75, 0x74, 0x70, 0x75, 0x74, 0x5f, 0x30, 0x00, 0x00, 0x00, 0x00, 0x01, 0x00, 0x00, 0x00, 0x04, 0x00, 0x00, 0x00, 0xae, 0xb3, 0xff, 0xff, 0x04, 0x00, 0x00, 0x00, 0x0c, 0x00, 0x00, 0x00, 0x6b, 0x65, 0x72, 0x61, 0x73, 0x5f, 0x74, 0x65, 0x6e, 0x73, 0x6f, 0x72, 0x00, 0x00, 0x00, 0x00, 0x02, 0x00, 0x00, 0x00, 0x34, 0x00, 0x00, 0x00, 0x04, 0x00, 0x00, 0x00, 0xdc, 0xff, 0xff, 0xff, 0x16, 0x00, 0x00, 0x00, 0x04, 0x00, 0x00, 0x00, 0x13, 0x00, 0x00, 0x00, 0x43, 0x4f, 0x4e, 0x56, 0x45, 0x52, 0x53, 0x49, 0x4f, 0x4e, 0x5f, 0x4d, 0x45, 0x54, 0x41, 0x44, 0x41, 0x54, 0x41, 0x00, 0x08, 0x00, 0x0c, 0x00, 0x08, 0x00, 0x04, 0x00, 0x08, 0x00, 0x00, 0x00, 0x15, 0x00, 0x00, 0x00, 0x04, 0x00, 0x00, 0x00, 0x13, 0x00, 0x00, 0x00, 0x6d, 0x69, 0x6e, 0x5f, 0x72, 0x75, 0x6e, 0x74, 0x69, 0x6d, 0x65, 0x5f, 0x76, 0x65, 0x72, 0x73, 0x69, 0x6f, 0x6e, 0x00, 0x17, 0x00, 0x00, 0x00, 0x0c, 0x4c, 0x00, 0x00, 0x04, 0x4c, 0x00, 0x00, 0xd4, 0x4b, 0x00, 0x00, 0xb0, 0x4b, 0x00, 0x00, 0xe0, 0x47, 0x00, 0x00, 0x90, 0x47, 0x00, 0x00, 0x80, 0x01, 0x00, 0x00, 0x30, 0x01, 0x00, 0x00, 0x1c, 0x01, 0x00, 0x00, 0x08, 0x01, 0x00, 0x00, 0xf0, 0x00, 0x00, 0x00, 0xdc, 0x00, 0x00, 0x00, 0xd4, 0x00, 0x00, 0x00, 0xcc, 0x00, 0x00, 0x00, 0xc4, 0x00, 0x00, 0x00, 0xbc, 0x00, 0x00, 0x00, 0xb4, 0x00, 0x00, 0x00, 0xac, 0x00, 0x00, 0x00, 0xa4, 0x00, 0x00, 0x00, 0x9c, 0x00, 0x00, 0x00, 0x94, 0x00, 0x00, 0x00, 0x74, 0x00, 0x00, 0x00, 0x04, 0x00, 0x00, 0x00, 0x86, 0xb4, 0xff, 0xff, 0x04, 0x00, 0x00, 0x00, 0x60, 0x00, 0x00, 0x00, 0x10, 0x00, 0x00, 0x00, 0x00, 0x00, 0x00, 0x00, 0x08, 0x00, 0x0e, 0x00, 0x08, 0x00, 0x04, 0x00, 0x08, 0x00, 0x00, 0x00, 0x10, 0x00, 0x00, 0x00, 0x24, 0x00, 0x00, 0x00, 0x00, 0x00, 0x06, 0x00, 0x08, 0x00, 0x04, 0x00, 0x06, 0x00, 0x00, 0x00, 0x04, 0x00, 0x00, 0x00, 0x00, 0x00, 0x00, 0x00, 0x0c, 0x00, 0x18, 0x00, 0x14, 0x00, 0x10, 0x00, 0x0c, 0x00, 0x04, 0x00, 0x0c, 0x00, 0x00, 0x00, 0xe9, 0xc5, 0x48, 0x2f, 0x91, 0xa8, 0x32, 0xb3, 0x02, 0x00, 0x00, 0x00, 0x02, 0x00, 0x00, 0x00, 0x04, 0x00, 0x00, 0x00, 0x06, 0x00, 0x00, 0x00, 0x32, 0x2e, 0x31, 0x39, 0x2e, 0x30, 0x00, 0x00, 0xf2, 0xb4, 0xff, 0xff, 0x04, 0x00, 0x00, 0x00, 0x10, 0x00, 0x00, 0x00, 0x31, 0x2e, 0x31, 0x34, 0x2e, 0x30, 0x00, 0x00, 0x00, 0x00, 0x00, 0x00, 0x00, 0x00, 0x00, 0x00, 0x6c, 0xaa, 0xff, 0xff, 0x70, 0xaa, 0xff, 0xff, 0x74, 0xaa, 0xff, 0xff, 0x78, 0xaa, 0xff, 0xff, 0x7c, 0xaa, 0xff, 0xff, 0x80, 0xaa, 0xff, 0xff, 0x84, 0xaa, 0xff, 0xff, 0x88, 0xaa, 0xff, 0xff, 0x8c, 0xaa, 0xff, 0xff, 0x32, 0xb5, 0xff, 0xff, 0x04, 0x00, 0x00, 0x00, 0x04, 0x00, 0x00, 0x00, 0xfd, 0xff, 0xff, 0xff, 0x42, 0xb5, 0xff, 0xff, 0x04, 0x00, 0x00, 0x00, 0x08, 0x00, 0x00, 0x00, 0xff, 0xff, 0xff, 0xff, 0x18, 0x01, 0x00, 0x00, 0x56, 0xb5, 0xff, 0xff, 0x04, 0x00, 0x00, 0x00, 0x04, 0x00, 0x00, 0x00, 0x01, 0x00, 0x00, 0x00, 0x66, 0xb5, 0xff, 0xff, 0x04, 0x00, 0x00, 0x00, 0x04, 0x00, 0x00, 0x00, 0xc0, 0xfb, 0xd7, 0xbb, 0x76, 0xb5, 0xff, 0xff, 0x04, 0x00, 0x00, 0x00, 0x40, 0x00, 0x00, 0x00, 0x7b, 0x9a, 0x20, 0xbc, 0x33, 0x25, 0xc3, 0x3b, 0x6b, 0x86, 0xa9, 0x3b, 0xe5, 0x31, 0xba, 0x3b, 0xa7, 0xb2, 0x3e, 0xbc, 0x8b, 0x4a, 0x3a, 0xbc, 0xbc, 0xfc, 0x51, 0xbc, 0x32, 0x08, 0xa5, 0x3b, 0x57, 0xd6, 0x3a, 0xbc, 0x30, 0xa2, 0x90, 0x3a, 0x5a, 0x13, 0xe4, 0xbb, 0x0b, 0x78, 0x3a, 0xbc, 0x8a, 0x97, 0x3a, 0xbc, 0xc0, 0xd3, 0xc4, 0x38, 0xf3, 0xf6, 0x3d, 0xbc, 0xf2, 0xa3, 0xab, 0xbb, 0xc2, 0xb5, 0xff, 0xff, 0x04, 0x00, 0x00, 0x00, 0x00, 0x46, 0x00, 0x00, 0xfe, 0x37, 0x14, 0xbd, 0x98, 0x4f, 0x26, 0x3d, 0x0d, 0x86, 0xae, 0xbd, 0x48, 0x72, 0xb0, 0xbd, 0x1b, 0x1a, 0x8c, 0xbd, 0x5b, 0x61, 0x8b, 0x3d, 0xac, 0x61, 0xb2, 0x3d, 0x80, 0x21, 0x0a, 0xbe, 0xf4, 0x76, 0x17, 0xbe, 0x14, 0xbe, 0x08, 0xbd, 0x51, 0x4c, 0xa2, 0x3d, 0xdf, 0x76, 0xba, 0x3d, 0x4f, 0x08, 0x21, 0xbc, 0x24, 0xdc, 0x94, 0x3d, 0x46, 0x22, 0xe5, 0x3d, 0x61, 0xc9, 0xd6, 0x3d, 0x78, 0xc7, 0xa2, 0x3d, 0x68, 0x4d, 0x62, 0xbd, 0x49, 0xb5, 0x42, 0x3d, 0x65, 0xb0, 0x42, 0xbd, 0x4d, 0x74, 0x06, 0xbe, 0x2a, 0x0e, 0xc6, 0xbd, 0x1a, 0x9c, 0xe2, 0x3d, 0x64, 0x9f, 0xa9, 0xbd, 0xd0, 0xbf, 0x37, 0x3c, 0xdc, 0x86, 0x17, 0xbd, 0x46, 0xac, 0x2b, 0xbd, 0xc8, 0x68, 0x6d, 0x3d, 0x4d, 0x9e, 0x01, 0xbe, 0x05, 0xee, 0xa3, 0x3d, 0xc2, 0x9d, 0xaa, 0xbd, 0x5d, 0x4f, 0x81, 0xbc, 0xfd, 0x89, 0xc4, 0x3d, 0x4e, 0xba, 0xc7, 0xbd, 0x3e, 0x0a, 0xb8, 0xbb, 0x66, 0x68, 0x9e, 0x3d, 0xbc, 0xdc, 0x92, 0xbd, 0x2f, 0x21, 0x15, 0xbe, 0xf3, 0x74, 0x0f, 0xbe, 0x1b, 0xc5, 0x86, 0x3c, 0x47, 0x91, 0x76, 0x3b, 0xe9, 0x8e, 0x3c, 0xbd, 0x00, 0x64, 0x0e, 0xbe, 0x6e, 0x8a, 0xc2, 0xbc, 0x29, 0xf4, 0xa4, 0xbc, 0x7e, 0xc3, 0xdb, 0xbd, 0x68, 0x02, 0x76, 0xba, 0x69, 0xc8, 0x86, 0xbd, 0xba, 0xc6, 0xd0, 0xbd, 0xe3, 0xe0, 0x99, 0x3d, 0xdc, 0x0e, 0xcc, 0x3d, 0xd7, 0xa8, 0xb0, 0x3d, 0x14, 0xea, 0x79, 0xbd, 0xf3, 0xbd, 0xd7, 0xbd, 0x38, 0x79, 0xd4, 0xbd, 0x9d, 0x74, 0x16, 0xbe, 0x68, 0x25, 0x5e, 0xbd, 0xca, 0x73, 0x34, 0xbc, 0x92, 0xbb, 0xcc, 0x3d, 0x63, 0x61, 0xc7, 0xbd, 0x69, 0x81, 0x12, 0xbe, 0xbb, 0xaf, 0xd6, 0x3d, 0xf9, 0xca, 0x9c, 0x3d, 0xf7, 0x3e, 0x42, 0xbd, 0x13, 0xf8, 0xb8, 0x3d, 0xf6, 0xe3, 0x7a, 0x3d, 0xe2, 0x3d, 0x62, 0xbd, 0x4e, 0x5a, 0x89, 0x3d, 0xe1, 0xbe, 0xdb, 0x3d, 0xf7, 0xe9, 0x01, 0x3e, 0xa0, 0x40, 0x83, 0x3b, 0xa7, 0x12, 0x00, 0x3e, 0x33, 0xab, 0x66, 0xbd, 0xce, 0x85, 0xd9, 0xbd, 0xac, 0xff, 0x90, 0x3d, 0x07, 0xa0, 0xa2, 0xbd, 0x5e, 0x3d, 0xed, 0xbd, 0x1b, 0x92, 0x04, 0x3e, 0x78, 0x82, 0xf8, 0xbb, 0x35, 0xe5, 0xd5, 0x3d, 0x8a, 0x27, 0x9f, 0xbd, 0x43, 0xf7, 0xd5, 0xbd, 0xf8, 0xbd, 0x8a, 0xbd, 0xb8, 0x35, 0x17, 0x3d, 0x10, 0x88, 0x89, 0xbb, 0x1a, 0x53, 0x7d, 0x3d, 0x0e, 0x21, 0xba, 0x3c, 0x89, 0xf9, 0x69, 0x3d, 0x3f, 0xb7, 0xe8, 0xbd, 0xcc, 0xf3, 0x9a, 0x3c, 0x2e, 0x5b, 0xd7, 0xbd, 0xc2, 0x7e, 0x8e, 0x3d, 0x49, 0x59, 0x10, 0x3d, 0xed, 0xde, 0xbd, 0xbd, 0xeb, 0x1a, 0xbd, 0xbd, 0x59, 0xbb, 0xf1, 0xbd, 0x1a, 0xb4, 0xb6, 0x3d, 0x23, 0x64, 0x19, 0xbd, 0x0f, 0xd5, 0x10, 0xbe, 0x27, 0xe9, 0xb9, 0xbd, 0xc9, 0x88, 0x12, 0xbe, 0xa6, 0xf6, 0xe4, 0x3d, 0x49, 0x8b, 0xe0, 0xbd, 0xe4, 0xe8, 0xa8, 0xbd, 0x24, 0x47, 0xf7, 0xbc, 0x42, 0x14, 0x02, 0x3d, 0x0f, 0x81, 0x16, 0xbe, 0x1b, 0xb9, 0x38, 0xbd, 0xa3, 0x8e, 0x0d, 0x3c, 0x47, 0xc4, 0xe6, 0xbd, 0x7c, 0xb0, 0xfd, 0x3d, 0xa8, 0xed, 0x49, 0x3d, 0xd7, 0xd5, 0x1e, 0x3d, 0x00, 0x62, 0xa8, 0x3d, 0xc1, 0xb7, 0xc2, 0x3d, 0x54, 0x39, 0xf7, 0xbd, 0x14, 0x14, 0x01, 0xbe, 0x66, 0x00, 0x84, 0x3d, 0xb5, 0xf8, 0xa2, 0x3d, 0x7c, 0x0b, 0x0b, 0xbe, 0x0b, 0x94, 0x05, 0x3e, 0xb1, 0xb7, 0x63, 0x3d, 0x94, 0xeb, 0x03, 0x3e, 0xea, 0xff, 0xbe, 0xbc, 0xa6, 0x12, 0xf4, 0xbd, 0xd9, 0xe7, 0xb3, 0x3b, 0xa9, 0xec, 0xce, 0x3d, 0x9d, 0x2b, 0x1b, 0xbe, 0x3c, 0x59, 0x92, 0xbd, 0x34, 0x0f, 0x0a, 0x3d, 0xa0, 0x61, 0x15, 0x3d, 0x72, 0x6f, 0xfc, 0xbd, 0xa8, 0x3c, 0xe8, 0xbd, 0xb4, 0xe4, 0xe4, 0xbc, 0x8d, 0x4f, 0x08, 0x3e, 0x1f, 0x28, 0xd5, 0xbd, 0x4d, 0xc9, 0x60, 0xbd, 0x38, 0x01, 0x3a, 0xbc, 0x20, 0x8f, 0xf6, 0x3d, 0x60, 0xe3, 0xf7, 0x3d, 0xb2, 0x94, 0x6e, 0xbc, 0x86, 0x98, 0xe9, 0xbd, 0xf1, 0x69, 0x8c, 0xbd, 0x49, 0x21, 0x80, 0xbc, 0x14, 0xaf, 0xb8, 0xbd, 0xf3, 0xc8, 0x15, 0xbe, 0x85, 0xd8, 0x32, 0xbd, 0xc7, 0x7a, 0x11, 0xbd, 0x99, 0xd3, 0xc3, 0xbb, 0xa4, 0x05, 0x87, 0x3d, 0x09, 0x02, 0x6e, 0x3d, 0xae, 0x88, 0x94, 0x3d, 0xd1, 0xc1, 0x86, 0xbc, 0xcc, 0x38, 0xcb, 0xbc, 0xe3, 0x97, 0x9a, 0x3d, 0x83, 0x63, 0x17, 0xbe, 0xae, 0x14, 0x2f, 0xbd, 0x46, 0x48, 0x25, 0xbb, 0xdd, 0x35, 0xb4, 0xbd, 0x52, 0xe0, 0xcf, 0xbd, 0xe2, 0x3b, 0x3c, 0x3c, 0x9b, 0xdf, 0x03, 0x3e, 0x29, 0xd1, 0xe2, 0xbd, 0xfd, 0xfa, 0x17, 0x3d, 0xd9, 0x70, 0xea, 0x3d, 0x8a, 0xfc, 0xab, 0xbd, 0x07, 0x53, 0x9e, 0x3d, 0x26, 0xa5, 0xe8, 0xbd, 0x73, 0xf4, 0x96, 0xbd, 0xd0, 0x1a, 0xa3, 0xbd, 0x12, 0x39, 0x01, 0xbe, 0xd0, 0x30, 0x30, 0x3d, 0x7d, 0xbe, 0x81, 0xbd, 0xdd, 0xad, 0xd7, 0xbd, 0x0e, 0x4d, 0xf8, 0x3d, 0x63, 0xf7, 0xc5, 0x3c, 0xe0, 0xe7, 0xc6, 0xbb, 0x5a, 0xdf, 0xba, 0x3d, 0x12, 0x85, 0x0b, 0x3d, 0x69, 0xd5, 0xf5, 0x3d, 0x2c, 0xcc, 0x35, 0xbd, 0x19, 0xa9, 0xa0, 0xbc, 0x76, 0x26, 0x92, 0x3d, 0x22, 0x4b, 0x35, 0xbd, 0x1f, 0x86, 0xac, 0x3d, 0x24, 0xa4, 0xbd, 0x3d, 0xe8, 0x86, 0xf7, 0x3c, 0x26, 0x7e, 0x88, 0x3d, 0x8f, 0xd0, 0xb2, 0x3d, 0x1e, 0xa5, 0xe4, 0xbd, 0x06, 0x48, 0x8b, 0xbb, 0x39, 0x77, 0x9b, 0x3b, 0xdb, 0x68, 0x4b, 0x3d, 0x5a, 0xd5, 0x92, 0x3d, 0x4f, 0x06, 0x53, 0xbc, 0x0f, 0x9a, 0x02, 0xbd, 0xff, 0x88, 0xc2, 0xbc, 0xdb, 0x01, 0xe9, 0xbd, 0xeb, 0x06, 0x69, 0x3d, 0x59, 0x95, 0x03, 0xbe, 0x24, 0xea, 0x68, 0xbd, 0x3a, 0xcd, 0x4e, 0x3d, 0xef, 0xc4, 0x08, 0xbd, 0x08, 0x0c, 0xef, 0xbd, 0xa4, 0x7c, 0xb7, 0x3d, 0xf9, 0xf6, 0xcd, 0xbd, 0x1f, 0x98, 0x22, 0x3d, 0x88, 0x23, 0x04, 0x3e, 0x27, 0x71, 0x09, 0xbc, 0x00, 0x28, 0xe4, 0xbd, 0x40, 0x80, 0xb2, 0x3d, 0xba, 0xd4, 0xed, 0xbc, 0xb0, 0xa8, 0xed, 0xbd, 0xf1, 0x58, 0xc8, 0x3c, 0xe9, 0xcc, 0xab, 0x3c, 0x2f, 0x36, 0xf0, 0x3c, 0xdf, 0x48, 0xfb, 0x3d, 0xdc, 0xd2, 0x8e, 0xbd, 0x64, 0xc1, 0xbe, 0xbd, 0x68, 0x83, 0xb8, 0xbd, 0x00, 0x2b, 0x81, 0x3d, 0xb3, 0x88, 0x8c, 0xbd, 0xbd, 0x0c, 0xf2, 0x3c, 0x8f, 0x05, 0x38, 0xbc, 0xe8, 0x70, 0xf7, 0x3d, 0x12, 0xd1, 0x9e, 0x3d, 0x09, 0xcc, 0x65, 0x3d, 0x1b, 0x29, 0x52, 0xbd, 0x6b, 0xb0, 0xdd, 0xbc, 0x6a, 0x5e, 0xab, 0x3c, 0x7c, 0x39, 0x32, 0x3d, 0xd0, 0x56, 0x8d, 0xbd, 0xdd, 0x5b, 0xdb, 0xbd, 0x66, 0xb5, 0xaa, 0xbd, 0x35, 0x32, 0x00, 0xbe, 0x4d, 0xc8, 0x72, 0x3d, 0x71, 0x09, 0x9e, 0xbd, 0xfe, 0x3b, 0x80, 0xbd, 0xd4, 0xe2, 0x0c, 0xbe, 0xd7, 0xaa, 0x09, 0xbe, 0x77, 0xc5, 0x00, 0x3e, 0x3c, 0xaf, 0x3a, 0xbd, 0x25, 0xe3, 0x91, 0x3c, 0xad, 0x81, 0x96, 0xbd, 0xe0, 0x5c, 0xa7, 0x3d, 0x61, 0x62, 0xf0, 0x3d, 0xf5, 0xc4, 0xfa, 0xbc, 0xb5, 0xda, 0x92, 0x3d, 0x1b, 0x0e, 0x04, 0x3d, 0x65, 0xa5, 0xd7, 0xbd, 0xd7, 0x9b, 0xa6, 0xbc, 0xbb, 0x2a, 0xcb, 0x3b, 0x79, 0xbc, 0xce, 0xbd, 0xce, 0x59, 0x38, 0x3c, 0x20, 0xce, 0x93, 0x3d, 0xd3, 0x3f, 0x8b, 0xbc, 0x0e, 0xb5, 0x09, 0xbe, 0xf5, 0x80, 0x31, 0x3d, 0xe0, 0x5a, 0x07, 0xbe, 0x54, 0x1b, 0xac, 0x3d, 0x2b, 0xa7, 0xab, 0x3d, 0xe2, 0x56, 0x99, 0x3d, 0x2b, 0x89, 0x79, 0xbd, 0x67, 0x06, 0x6b, 0xbd, 0x50, 0xc0, 0x5b, 0x3d, 0xee, 0x74, 0xc1, 0xbd, 0x2c, 0xdc, 0x56, 0xbc, 0xad, 0x87, 0x31, 0xbd, 0xa4, 0xd2, 0xf1, 0xbd, 0xda, 0xfd, 0xd3, 0xbd, 0xec, 0x42, 0xd9, 0x3d, 0x97, 0xcd, 0xc7, 0xbd, 0xad, 0x1f, 0x27, 0x3d, 0xec, 0x66, 0x78, 0xbb, 0x72, 0xf5, 0xbf, 0x3d, 0x13, 0xfd, 0xdb, 0xbd, 0x74, 0x70, 0xd7, 0x3d, 0xcb, 0x35, 0xea, 0xbd, 0xcf, 0x88, 0x76, 0xbd, 0x38, 0x3f, 0x18, 0xbe, 0x93, 0xa0, 0x08, 0xbd, 0xde, 0x3e, 0x9b, 0xbd, 0x99, 0x76, 0xba, 0xbd, 0x71, 0xa9, 0x12, 0x3d, 0x47, 0x07, 0x81, 0xba, 0xbc, 0xf2, 0xf2, 0x3c, 0x3c, 0xad, 0x92, 0xbd, 0xd9, 0xe8, 0x75, 0x3d, 0x99, 0xa3, 0x0b, 0xbd, 0x34, 0x21, 0xc8, 0xbb, 0x18, 0xaf, 0xd2, 0x3c, 0xa6, 0xcd, 0xae, 0x3d, 0x7f, 0x42, 0xd8, 0x3d, 0x8c, 0x6a, 0x72, 0xbb, 0xf6, 0x15, 0x3e, 0xbb, 0x8f, 0xa0, 0x3c, 0x3d, 0x97, 0xb7, 0xfc, 0x3d, 0xb3, 0xbe, 0x89, 0xbd, 0x72, 0x7f, 0xf0, 0x3d, 0xac, 0x1a, 0xda, 0x3d, 0x19, 0xee, 0xab, 0x3b, 0x96, 0x16, 0xc9, 0xbb, 0x7d, 0x6d, 0xdc, 0xbc, 0x16, 0x76, 0x1e, 0x3d, 0x82, 0xf6, 0xc4, 0x3d, 0x78, 0xa0, 0x51, 0xbd, 0x4b, 0x5b, 0x0f, 0x3e, 0x9b, 0x34, 0xea, 0xbd, 0x6a, 0xc6, 0x2d, 0x3d, 0xf2, 0x70, 0xbe, 0xbd, 0xdc, 0x4f, 0x12, 0x3e, 0x8e, 0x89, 0xa4, 0xbd, 0x36, 0xff, 0xf0, 0x3d, 0xc8, 0x6c, 0x18, 0x3e, 0x98, 0xc4, 0x7e, 0x3c, 0x27, 0xb0, 0xcc, 0x3d, 0xde, 0x9c, 0x06, 0x3e, 0x04, 0xd8, 0x8b, 0x3d, 0x14, 0xa6, 0x44, 0xbc, 0x7e, 0xa4, 0x9d, 0x3d, 0x4b, 0xa8, 0xfc, 0xbd, 0x15, 0x1c, 0xd9, 0xb8, 0xb4, 0x2b, 0xe4, 0x3d, 0x4e, 0x7c, 0x72, 0x3d, 0xc0, 0x3b, 0xbb, 0xbd, 0x7f, 0xed, 0xfd, 0xbd, 0x65, 0x97, 0xf5, 0xbd, 0xa8, 0x60, 0xef, 0x3d, 0x9a, 0x24, 0xb6, 0xbb, 0x5b, 0xef, 0x19, 0xbd, 0x98, 0x24, 0xc6, 0xba, 0x84, 0x47, 0x62, 0x3d, 0x6e, 0xee, 0x45, 0xbb, 0x89, 0x78, 0x91, 0x3d, 0xed, 0x0c, 0x90, 0x3d, 0xa4, 0x03, 0xb0, 0x3d, 0xde, 0xad, 0x3c, 0x3b, 0xa4, 0x8a, 0x33, 0x3b, 0xd6, 0x71, 0x5f, 0x3d, 0x27, 0x68, 0x5a, 0x3d, 0x4f, 0x3d, 0x15, 0xbd, 0x81, 0x3e, 0xed, 0x3d, 0xae, 0x76, 0xfd, 0xbd, 0xd5, 0x44, 0xa5, 0x3d, 0x34, 0x5e, 0x90, 0xbb, 0x67, 0x8a, 0x14, 0x3e, 0x2a, 0x1d, 0xec, 0x3d, 0x56, 0x4a, 0xa2, 0x3d, 0xc5, 0x46, 0x06, 0xbe, 0x42, 0x4d, 0xd3, 0xbd, 0x13, 0xc3, 0x13, 0x3e, 0x66, 0xd7, 0xc9, 0x3d, 0x63, 0x97, 0xa9, 0x3d, 0x54, 0x35, 0x36, 0xbd, 0x0d, 0x06, 0xb2, 0xbd, 0x7a, 0xbb, 0x02, 0x3e, 0x2e, 0x85, 0xd0, 0x3d, 0x49, 0x66, 0xf2, 0x3d, 0x59, 0x58, 0xee, 0x3d, 0x6c, 0xf1, 0xec, 0x3d, 0x03, 0x28, 0x0e, 0xbe, 0x64, 0x59, 0x03, 0xbe, 0x2e, 0x6e, 0x09, 0x3e, 0xc7, 0xec, 0x11, 0x3e, 0x72, 0x2e, 0x31, 0x3c, 0x99, 0xd0, 0xf9, 0x3d, 0x1e, 0x91, 0x60, 0x3c, 0x46, 0xb3, 0xf2, 0x3d, 0x38, 0xab, 0x05, 0xbe, 0x4a, 0xe2, 0x15, 0x3e, 0x8b, 0xb1, 0x0b, 0x3d, 0xb9, 0x77, 0xe5, 0x3d, 0xe9, 0xe9, 0xc2, 0x3c, 0x13, 0xbd, 0xd0, 0x3d, 0x5f, 0x85, 0x88, 0x3c, 0xfb, 0x81, 0xf9, 0xbd, 0x80, 0x98, 0xd9, 0xbd, 0x76, 0x2c, 0xd9, 0xbd, 0xc7, 0x76, 0xda, 0xbd, 0xb6, 0x23, 0x28, 0x3d, 0x7b, 0xa4, 0x03, 0xbd, 0x70, 0xbc, 0x1d, 0x3e, 0x8c, 0x74, 0xcf, 0xbd, 0x1c, 0x3a, 0xaa, 0xbc, 0x4f, 0x78, 0xe8, 0x3d, 0x88, 0xba, 0x02, 0x3d, 0x42, 0x8a, 0x13, 0x3c, 0xd8, 0x7c, 0x1f, 0x3d, 0xc7, 0xb3, 0x40, 0x3d, 0xa1, 0xf4, 0xe9, 0xbd, 0x8a, 0x5b, 0xf4, 0xbd, 0xa3, 0xd9, 0x05, 0xbe, 0xe6, 0x5d, 0x81, 0xbd, 0x65, 0x81, 0xa5, 0x3d, 0xe1, 0xd4, 0xbc, 0x3d, 0x75, 0x2e, 0x99, 0x3d, 0x91, 0xd1, 0xd3, 0xbb, 0xe3, 0x13, 0x19, 0x3e, 0xdd, 0x9a, 0xfb, 0xbd, 0x03, 0xf2, 0x5f, 0x3d, 0x5e, 0x6b, 0x3a, 0x3d, 0x62, 0x63, 0x3b, 0xb8, 0xe7, 0x19, 0x0c, 0x3e, 0x80, 0x98, 0xa9, 0x3d, 0x31, 0xbb, 0xc5, 0xbd, 0xc2, 0x3c, 0x7f, 0x3d, 0xc8, 0x48, 0x17, 0x3e, 0xb2, 0x93, 0xb4, 0xbd, 0x5a, 0xff, 0xc2, 0xbd, 0xb7, 0x6e, 0xbd, 0xbc, 0x55, 0x8e, 0xd2, 0xbc, 0xae, 0x8e, 0x10, 0xbe, 0x9c, 0x23, 0xd2, 0x3d, 0xc3, 0x15, 0xcf, 0xbd, 0xbe, 0xd5, 0xfd, 0xbd, 0x72, 0xf1, 0xa9, 0xbc, 0x98, 0x9d, 0xcb, 0xbd, 0x9e, 0x3d, 0x16, 0xbd, 0x70, 0x01, 0xe7, 0xbd, 0x98, 0xba, 0x93, 0xbc, 0x35, 0xca, 0xff, 0xbc, 0x6e, 0x3a, 0xfb, 0xbd, 0xfd, 0x0e, 0xa1, 0x3d, 0x10, 0x30, 0xc6, 0x3d, 0x9f, 0xef, 0xb0, 0xbd, 0x2b, 0xaf, 0x93, 0x3d, 0xc6, 0x6f, 0xdf, 0xbd, 0xe1, 0x77, 0xaa, 0xbd, 0x3e, 0x95, 0x8e, 0xbd, 0xe7, 0x38, 0xc1, 0xbd, 0xf3, 0x8f, 0xe9, 0xbd, 0x35, 0x86, 0x88, 0xbd, 0x8b, 0xf7, 0x63, 0x3d, 0xbf, 0x9a, 0x0d, 0x3e, 0x9e, 0x3b, 0xd9, 0xbd, 0xc6, 0x51, 0x0a, 0x3e, 0x28, 0x35, 0x86, 0xbd, 0x16, 0xf2, 0xeb, 0x3d, 0xca, 0xfa, 0x9a, 0xbb, 0x4a, 0x55, 0xe9, 0x3c, 0x46, 0xcd, 0xf0, 0x3d, 0xd4, 0xcd, 0xaf, 0x3d, 0xb8, 0x5b, 0x13, 0x3e, 0xf3, 0x4f, 0xb9, 0xbd, 0xf3, 0x29, 0x08, 0x3e, 0xc3, 0x0e, 0xf5, 0x3d, 0x86, 0x37, 0xd7, 0x3d, 0xb8, 0xba, 0x1a, 0x3d, 0x5c, 0xcf, 0x87, 0xbd, 0xa3, 0x63, 0x2e, 0xbd, 0xaa, 0x34, 0xf9, 0xbb, 0xd6, 0xa4, 0xaa, 0x3d, 0x2e, 0xad, 0x13, 0x3e, 0xb4, 0xad, 0x7e, 0x3d, 0xde, 0xa0, 0x94, 0x3d, 0x38, 0xb8, 0xf8, 0xbd, 0x17, 0x54, 0x7c, 0xbd, 0x26, 0x2f, 0xe3, 0xbc, 0x1f, 0xd6, 0x77, 0x3d, 0xe4, 0xa6, 0x18, 0xbd, 0xd0, 0xfa, 0x6b, 0x3c, 0xb1, 0x7b, 0xdf, 0x3d, 0x85, 0xb3, 0xd5, 0xbd, 0x79, 0xed, 0xb3, 0xbd, 0x37, 0xb2, 0xfe, 0x3d, 0x9b, 0x6a, 0x8a, 0x3d, 0x90, 0x7f, 0x1e, 0x3e, 0xfd, 0x21, 0xfe, 0x3d, 0x04, 0x75, 0x9f, 0xbd, 0xd1, 0xf0, 0x76, 0x3d, 0xd2, 0x18, 0x5a, 0xbc, 0xfd, 0x0e, 0x55, 0xbb, 0x3a, 0x0f, 0x86, 0xbd, 0x19, 0x7f, 0x22, 0x3d, 0xd7, 0x02, 0xba, 0xbd, 0x01, 0x73, 0x98, 0x3d, 0x82, 0x9a, 0xeb, 0x3d, 0xc6, 0xaa, 0xde, 0x3d, 0x1f, 0x55, 0x49, 0xbd, 0x11, 0xbd, 0x0e, 0x3d, 0xf5, 0xca, 0x8d, 0xbd, 0xc3, 0x8d, 0xd0, 0x3d, 0xbd, 0x71, 0xfe, 0xbd, 0x07, 0xb0, 0xa9, 0x3d, 0x50, 0x94, 0xad, 0xbd, 0x78, 0x6a, 0x34, 0x3d, 0x8d, 0xbc, 0x83, 0x3d, 0x37, 0x8e, 0x8c, 0x3a, 0x68, 0xf0, 0xc5, 0x3d, 0x7f, 0xc5, 0xaa, 0xbd, 0x34, 0x24, 0xfc, 0x3d, 0x39, 0x16, 0xbe, 0x3d, 0x8e, 0xcb, 0x42, 0xbc, 0xcb, 0x54, 0xac, 0xbd, 0x5f, 0xc3, 0xbd, 0x3d, 0x5d, 0x19, 0xd0, 0x3d, 0x3f, 0x9d, 0x00, 0x3e, 0xea, 0xb9, 0x07, 0x3e, 0xf5, 0xdb, 0x03, 0x3e, 0x45, 0x06, 0xb2, 0x3c, 0x95, 0x93, 0xc1, 0xbd, 0x76, 0x75, 0xcf, 0xbd, 0x78, 0xd4, 0xae, 0x3c, 0x3a, 0x40, 0xc6, 0x3d, 0x4b, 0x9a, 0xbd, 0xbc, 0xff, 0x83, 0xf9, 0x3d, 0x8f, 0xbc, 0x4a, 0x3c, 0xcd, 0x3b, 0x71, 0xbd, 0x99, 0x45, 0xde, 0x3d, 0xfc, 0x82, 0xc2, 0xbc, 0x98, 0x82, 0xe5, 0xbd, 0x27, 0xfb, 0x6d, 0x3d, 0x97, 0x8b, 0x9d, 0xbd, 0xae, 0x9f, 0xfe, 0xbb, 0xee, 0x40, 0xae, 0x3d, 0x56, 0x38, 0x72, 0xbc, 0x9f, 0x66, 0xe4, 0xbd, 0x40, 0x47, 0x82, 0xbd, 0xd5, 0xb5, 0x40, 0x3d, 0x63, 0x70, 0xda, 0xbd, 0x77, 0x48, 0x1e, 0x3d, 0x12, 0x2d, 0xec, 0x3d, 0xd1, 0x7a, 0xeb, 0xbd, 0x1a, 0x8c, 0x7b, 0x3d, 0x9f, 0x12, 0xad, 0x3d, 0xf4, 0x86, 0x25, 0x3c, 0x4e, 0x81, 0x12, 0xbd, 0xce, 0xe0, 0x54, 0x3c, 0x8c, 0x32, 0x00, 0xbe, 0xbf, 0xbc, 0xf8, 0x3d, 0xa9, 0x81, 0x79, 0xbd, 0x3f, 0x13, 0x77, 0xbd, 0x2c, 0xd1, 0xca, 0xbd, 0xcc, 0x8b, 0xaf, 0x3d, 0x5a, 0xc8, 0xc5, 0xbd, 0xcf, 0x3a, 0xb9, 0xbb, 0x61, 0x09, 0x71, 0x3d, 0xba, 0x27, 0xb5, 0x3d, 0x1b, 0xc9, 0x03, 0xbd, 0x32, 0x5e, 0x98, 0xbd, 0xfb, 0x48, 0x6f, 0xbd, 0x7d, 0xd3, 0x0f, 0xbd, 0x7b, 0x71, 0xa4, 0xbd, 0x28, 0xf7, 0x07, 0x3e, 0xa9, 0x50, 0x29, 0xbd, 0xfa, 0xc7, 0xe8, 0xbd, 0xe5, 0x7c, 0xe0, 0x3d, 0x47, 0x46, 0xe8, 0xbd, 0x3e, 0x4b, 0x3c, 0x3d, 0xc9, 0xcc, 0xdd, 0x3d, 0xf7, 0x29, 0x94, 0x3d, 0xb7, 0x13, 0xbd, 0x3c, 0x92, 0x8e, 0xe1, 0x3d, 0x0a, 0x07, 0x96, 0xbd, 0xae, 0xff, 0x07, 0x3e, 0x9c, 0x07, 0xab, 0xbd, 0x3e, 0x5b, 0x63, 0x3d, 0xad, 0xde, 0xca, 0xbb, 0xdd, 0x0c, 0x30, 0xbd, 0xdd, 0x06, 0x57, 0xbc, 0x16, 0x0e, 0xf6, 0xbd, 0xe2, 0x15, 0x84, 0x3d, 0x9f, 0x5f, 0xe0, 0xbc, 0xfc, 0x73, 0xce, 0xbd, 0x50, 0x01, 0x06, 0x3e, 0x16, 0xbc, 0x9c, 0x3d, 0x52, 0x79, 0xa9, 0x3b, 0xb6, 0x49, 0x1d, 0xb8, 0x87, 0x2f, 0x13, 0x3e, 0xfb, 0x0f, 0xa0, 0xbd, 0x48, 0xf4, 0x83, 0x3a, 0xc5, 0xb3, 0x9e, 0xbd, 0x52, 0x2c, 0x79, 0x3d, 0x9d, 0x6f, 0xa7, 0x3d, 0xaf, 0x4d, 0xff, 0xbc, 0x15, 0x6d, 0xed, 0x3d, 0xa0, 0xf9, 0xff, 0x3d, 0xb8, 0x2e, 0xe3, 0x3d, 0xe1, 0xd3, 0xc7, 0x3d, 0x47, 0xe7, 0x06, 0xbd, 0x35, 0x87, 0xf1, 0xbd, 0xce, 0xa5, 0xf8, 0x3d, 0x43, 0x45, 0x65, 0xbd, 0x71, 0x98, 0xb4, 0x39, 0x19, 0xde, 0xf6, 0xbd, 0xef, 0x8e, 0x00, 0xbe, 0x1a, 0xcd, 0x0c, 0x3e, 0x12, 0xf4, 0xb6, 0x3d, 0xde, 0x86, 0xa8, 0x3c, 0xde, 0x9b, 0x92, 0xbb, 0x32, 0x7c, 0x3e, 0xbc, 0xaa, 0x5d, 0x15, 0x3e, 0x63, 0x1c, 0x15, 0x3d, 0x07, 0x1d, 0xf9, 0xbd, 0x24, 0xb6, 0x82, 0x3d, 0x11, 0x5e, 0x9a, 0xbd, 0x03, 0x19, 0x15, 0xbc, 0xe7, 0xd7, 0x07, 0x3e, 0x2f, 0x4b, 0xff, 0x3d, 0xac, 0xba, 0xae, 0x3c, 0x8b, 0xa9, 0x9f, 0x3d, 0xd2, 0xa8, 0xcc, 0xbc, 0x21, 0x6c, 0xc2, 0xbd, 0x6c, 0x32, 0x2a, 0x3d, 0x29, 0x9b, 0xa4, 0x3d, 0x9d, 0xfd, 0xb6, 0x3c, 0x55, 0xeb, 0x0c, 0x3e, 0x5c, 0x2e, 0x8d, 0x3c, 0xf2, 0xbe, 0x90, 0x3d, 0xd7, 0x65, 0xea, 0xbd, 0xb2, 0x34, 0x09, 0x3e, 0xd6, 0xcf, 0xe9, 0xbd, 0xc1, 0xce, 0x13, 0xbd, 0xf7, 0xfa, 0xb4, 0xbd, 0x14, 0x84, 0x81, 0xbd, 0x9b, 0xec, 0xb0, 0xbd, 0x61, 0x01, 0x00, 0xbd, 0xca, 0xf0, 0xe2, 0xbc, 0xf6, 0xd0, 0x93, 0xbd, 0x82, 0x19, 0x07, 0xbe, 0x93, 0xe5, 0xcf, 0x3d, 0x1b, 0x86, 0x58, 0xbd, 0x28, 0x1c, 0xdc, 0xbd, 0xae, 0xc4, 0x38, 0xbd, 0x1e, 0x78, 0x7f, 0x3d, 0x09, 0x64, 0xbd, 0x3d, 0xe8, 0x0a, 0xec, 0xbd, 0xc9, 0xcc, 0x5c, 0xbd, 0xe0, 0x92, 0xde, 0xbc, 0x3c, 0x31, 0xa4, 0x3d, 0x4c, 0x16, 0x0c, 0x3d, 0x16, 0x6b, 0x69, 0x3d, 0x70, 0x3d, 0x1d, 0x3d, 0xf3, 0x37, 0x50, 0xbd, 0x0b, 0x7d, 0x05, 0x3e, 0x10, 0xb7, 0x02, 0x3e, 0x5a, 0x66, 0x06, 0x3e, 0x97, 0xc3, 0x68, 0xbd, 0xd6, 0x0e, 0x06, 0x3e, 0x26, 0xac, 0xd4, 0xbd, 0x1d, 0x0f, 0xea, 0xbd, 0x24, 0x34, 0xf3, 0x3c, 0x7e, 0x1c, 0xa6, 0xbc, 0x7e, 0x3e, 0x06, 0x3d, 0x81, 0xc7, 0x2c, 0x3d, 0xf1, 0x82, 0xd0, 0xbd, 0x57, 0x04, 0xb4, 0x3c, 0xd6, 0x3b, 0x91, 0x3d, 0x79, 0x43, 0x0f, 0xbd, 0x4f, 0xe8, 0x23, 0x3c, 0xc3, 0x9e, 0x0e, 0x3e, 0x04, 0xfc, 0x06, 0xbe, 0xab, 0x5e, 0x08, 0x3e, 0x1e, 0x43, 0x85, 0xbd, 0x49, 0x38, 0x96, 0x3c, 0x2b, 0xbf, 0xc6, 0x3d, 0x7b, 0x6e, 0x90, 0x3d, 0x02, 0x96, 0xb2, 0x3d, 0x6a, 0xd2, 0x51, 0x3d, 0xb6, 0x3d, 0x74, 0x3d, 0x10, 0x66, 0x0e, 0xbc, 0x95, 0x38, 0xce, 0x3d, 0xb0, 0x5c, 0xb4, 0xbb, 0xa0, 0x4c, 0x04, 0x3e, 0x85, 0x39, 0xbc, 0xbd, 0xfc, 0x1e, 0x9a, 0xbd, 0x51, 0x2b, 0xd9, 0x3d, 0x68, 0xf2, 0x08, 0xbe, 0xc4, 0xb3, 0x1c, 0x3e, 0x24, 0x1a, 0xd3, 0xbd, 0x5e, 0x5e, 0x9f, 0xbd, 0x46, 0x50, 0x1e, 0x3d, 0x75, 0x1d, 0xec, 0x3d, 0x6a, 0x7d, 0x11, 0xbd, 0x98, 0xd1, 0x73, 0xbd, 0xa8, 0x6c, 0x0f, 0x3e, 0x14, 0xd6, 0xcb, 0xbc, 0x57, 0xb1, 0x6a, 0xbd, 0xf9, 0x55, 0x00, 0x3e, 0x03, 0x29, 0x46, 0x3d, 0x29, 0x50, 0x71, 0xbd, 0x93, 0x6f, 0x9d, 0xbd, 0xc9, 0xdf, 0x81, 0xbb, 0xb3, 0x99, 0xc3, 0xbc, 0x6a, 0x21, 0x88, 0x3d, 0xcb, 0xc3, 0x19, 0x3e, 0x93, 0x43, 0xa1, 0xbd, 0x78, 0x94, 0x97, 0xbd, 0xca, 0xd8, 0x94, 0xbd, 0x22, 0xeb, 0xed, 0xbd, 0x15, 0x04, 0xc0, 0xbd, 0x54, 0xcc, 0x58, 0xbd, 0x8d, 0xa5, 0x01, 0xbd, 0xf1, 0x02, 0xd3, 0xbd, 0x38, 0xe6, 0xb0, 0x3d, 0x5c, 0x82, 0x2d, 0x39, 0x50, 0x04, 0xd9, 0xbd, 0x87, 0xa9, 0x01, 0xbe, 0xcb, 0xa1, 0xd7, 0xbd, 0x9b, 0x3e, 0x54, 0x3d, 0x0e, 0x22, 0x06, 0xbd, 0xc8, 0xe6, 0xdb, 0x3b, 0x77, 0x89, 0xb3, 0xbd, 0x10, 0x0d, 0xc5, 0xbd, 0x6f, 0x53, 0x8a, 0x3d, 0xbb, 0xe5, 0xc8, 0x3d, 0xca, 0x43, 0xfd, 0xbd, 0x73, 0x19, 0xc2, 0x3d, 0x0d, 0xc4, 0xbf, 0x3d, 0x5a, 0x22, 0x0b, 0x3d, 0x16, 0x0e, 0x9f, 0xbc, 0xa9, 0xc2, 0x01, 0x3e, 0x28, 0xbe, 0xe3, 0x3c, 0x86, 0xbe, 0x97, 0x3d, 0x44, 0x59, 0xfe, 0xbc, 0x2b, 0x4d, 0x7e, 0xbd, 0x60, 0xbc, 0xfc, 0x3d, 0xb7, 0x7d, 0xae, 0x3d, 0xa2, 0xc6, 0xe7, 0xbd, 0x3b, 0x46, 0x8a, 0xbc, 0xe3, 0x7c, 0xf9, 0xbd, 0x1f, 0xe1, 0x19, 0x3e, 0x6b, 0xcf, 0x04, 0x3e, 0x87, 0x31, 0xa3, 0xbd, 0xba, 0xb7, 0x04, 0x3e, 0xbd, 0xaf, 0xef, 0xbc, 0xee, 0x06, 0xc2, 0xbd, 0xf1, 0xbd, 0x9f, 0x3d, 0xc3, 0x11, 0x0b, 0x3d, 0x9a, 0xd4, 0xdd, 0x3d, 0x0c, 0xd7, 0xf1, 0xbd, 0x51, 0xc5, 0x15, 0xbd, 0xfd, 0x70, 0xd4, 0xbc, 0x77, 0x99, 0xde, 0x3d, 0xa7, 0xb2, 0xd6, 0x3c, 0x1e, 0x8f, 0x00, 0xbe, 0xb5, 0x7b, 0x8e, 0xbd, 0x77, 0x7c, 0x0f, 0xbd, 0x24, 0xf6, 0x86, 0xbc, 0x7f, 0xb3, 0x2b, 0x3d, 0xdd, 0x66, 0xa1, 0x3c, 0x22, 0x0e, 0x4c, 0xbd, 0x43, 0x5d, 0xc6, 0xbd, 0xe6, 0x0c, 0x00, 0x3d, 0x5b, 0x63, 0x08, 0x3e, 0x4d, 0x40, 0x8d, 0x3d, 0x1e, 0x0b, 0x97, 0x3c, 0x73, 0x4e, 0xa7, 0x3d, 0x77, 0xed, 0xc3, 0x3d, 0x9a, 0x8d, 0x0f, 0x3e, 0x9f, 0x43, 0xcd, 0x3d, 0x03, 0x23, 0xef, 0xbd, 0x37, 0xc4, 0xfa, 0xbd, 0xe0, 0xec, 0x01, 0xbe, 0x4a, 0x6e, 0x92, 0xbd, 0xa7, 0xd3, 0x16, 0x3d, 0xd7, 0x18, 0xfa, 0xbd, 0x6a, 0xdb, 0x0e, 0x3e, 0x2a, 0xdc, 0x0a, 0x3d, 0xb5, 0xfc, 0x83, 0x3d, 0x72, 0xb9, 0xdc, 0xbc, 0xf5, 0xc9, 0xaa, 0x3d, 0x19, 0x13, 0xfc, 0x3d, 0x97, 0xf3, 0x4f, 0xbd, 0x40, 0x9e, 0x5e, 0xbc, 0x6a, 0xe5, 0x5d, 0x3d, 0x81, 0xb9, 0x00, 0xbe, 0x0b, 0xff, 0x65, 0xbd, 0x45, 0x79, 0x88, 0x3d, 0x00, 0xc5, 0xc4, 0x3b, 0x71, 0x06, 0xf2, 0x3d, 0xac, 0xbb, 0x5a, 0x39, 0x43, 0x36, 0x95, 0x3c, 0x39, 0x46, 0xb6, 0x3d, 0x68, 0xeb, 0xf7, 0x3d, 0x04, 0x4b, 0xd8, 0x3c, 0xc5, 0xbf, 0x81, 0xbd, 0x78, 0x0f, 0xea, 0xbd, 0xd2, 0xe0, 0xda, 0xbc, 0x90, 0x46, 0xbb, 0x3d, 0xd5, 0x96, 0x60, 0x3a, 0x19, 0x67, 0x0f, 0x3e, 0x61, 0x3c, 0xc8, 0xbd, 0x5c, 0x46, 0xf9, 0xbb, 0xaa, 0xb8, 0xec, 0xbd, 0xd7, 0x57, 0xaf, 0xbd, 0x1d, 0x37, 0x2e, 0xbd, 0x04, 0xc5, 0x42, 0xbd, 0xc5, 0x75, 0x01, 0xbe, 0xa9, 0x68, 0x8a, 0x3d, 0x76, 0x5e, 0xe0, 0xbc, 0x63, 0x87, 0xbc, 0xbd, 0x76, 0x8f, 0x1d, 0xbc, 0xa4, 0x3d, 0xba, 0xbd, 0x56, 0x34, 0x18, 0x3b, 0xb3, 0x8a, 0xec, 0xbd, 0xdc, 0x4b, 0x50, 0xbd, 0xcf, 0x26, 0xe1, 0x3d, 0x7f, 0x22, 0x19, 0x3e, 0xf5, 0x0d, 0xdb, 0xbd, 0x3f, 0x2a, 0x8c, 0x3b, 0x02, 0x41, 0xb3, 0x3d, 0x47, 0x44, 0xf9, 0x3d, 0xe4, 0xf8, 0x57, 0x3d, 0xc4, 0x78, 0x11, 0x3e, 0xd8, 0x5e, 0x45, 0xbd, 0x8a, 0xf8, 0x11, 0x3e, 0xbd, 0xed, 0x10, 0x3e, 0x57, 0x7e, 0x97, 0x3c, 0x55, 0x7c, 0xe0, 0xbd, 0x6a, 0xfa, 0xba, 0xbd, 0x45, 0x65, 0xd5, 0x3c, 0x19, 0xf8, 0x04, 0xbe, 0xd6, 0xe4, 0xf3, 0xbd, 0x55, 0x8d, 0xcc, 0xbd, 0x66, 0x30, 0x47, 0x3b, 0x27, 0x10, 0x9d, 0x3d, 0x6f, 0xdf, 0xbc, 0x3d, 0x94, 0xb8, 0xbb, 0xbd, 0xa1, 0x3e, 0xe8, 0x3d, 0x6e, 0x92, 0x1d, 0xbd, 0xd8, 0x00, 0x1f, 0x3e, 0x0c, 0xe8, 0xdb, 0x3d, 0xa8, 0xa5, 0x32, 0xbd, 0x6c, 0x94, 0x99, 0x3d, 0xc9, 0x1b, 0x40, 0x3d, 0xa9, 0x77, 0xec, 0xbd, 0xd7, 0x74, 0x00, 0x3b, 0xd6, 0xc7, 0xa4, 0x3d, 0xde, 0x55, 0x16, 0x3e, 0x15, 0x69, 0xdc, 0xbd, 0xf7, 0x71, 0x81, 0xbb, 0x82, 0x2c, 0x0d, 0xbe, 0x10, 0x89, 0xf1, 0x3d, 0x7d, 0xd5, 0xb7, 0x3c, 0xe7, 0xc1, 0xce, 0x3d, 0x19, 0x82, 0x97, 0xbd, 0x58, 0x6f, 0xf3, 0x3c, 0xc7, 0xd1, 0xaf, 0x3d, 0x7e, 0xa7, 0x00, 0xbe, 0x22, 0xc7, 0x78, 0x3d, 0x9d, 0xaf, 0xd5, 0x3d, 0x50, 0xc1, 0xb6, 0x3d, 0xb0, 0x66, 0x4c, 0x38, 0xdd, 0x93, 0x96, 0x3b, 0xd6, 0xaa, 0xa7, 0x3c, 0xcb, 0x6a, 0x10, 0x3d, 0x21, 0xdf, 0x7b, 0xbd, 0x21, 0x3f, 0x4b, 0x3d, 0x2b, 0xac, 0x2d, 0xbd, 0x5d, 0x55, 0x93, 0xbd, 0xe5, 0x5b, 0x37, 0x3b, 0xfd, 0xd4, 0xcd, 0x3a, 0xce, 0xc3, 0x79, 0x3d, 0xba, 0xc8, 0x15, 0x3e, 0xe3, 0x45, 0x80, 0xba, 0xdd, 0x7a, 0xed, 0x3d, 0x96, 0x3e, 0x40, 0x3d, 0x11, 0x9e, 0x21, 0x3e, 0x09, 0x85, 0xd6, 0x3b, 0x7c, 0x46, 0x0e, 0x3e, 0x44, 0x7d, 0xdb, 0xbd, 0x23, 0xd5, 0xb3, 0x3d, 0x5d, 0x87, 0x00, 0xbe, 0xce, 0x7b, 0x08, 0x3d, 0x72, 0x39, 0xa5, 0x3c, 0x69, 0xb3, 0x00, 0x3e, 0xdd, 0xa3, 0x08, 0xbd, 0x06, 0x14, 0x71, 0xbd, 0xad, 0xb2, 0xc8, 0x3d, 0xa5, 0x52, 0xba, 0xbd, 0x59, 0x0c, 0xe3, 0x3d, 0x42, 0x3a, 0x6a, 0x3d, 0xae, 0x5a, 0x9e, 0xbd, 0xa1, 0xe7, 0x19, 0xbd, 0xb6, 0xd4, 0x37, 0xbb, 0x9e, 0x4c, 0x04, 0x3e, 0xe1, 0x59, 0x7e, 0xbd, 0x8c, 0xa5, 0xe6, 0xbb, 0x88, 0xa6, 0xab, 0xbd, 0xf6, 0xea, 0xf3, 0x3d, 0x84, 0x2a, 0x65, 0xbd, 0x6c, 0xd4, 0xc4, 0xbb, 0x1d, 0xc9, 0x44, 0x3d, 0x1d, 0x75, 0x54, 0xbd, 0x10, 0xf9, 0xcd, 0x3d, 0xe7, 0x6c, 0x9d, 0x3c, 0xaa, 0x48, 0xef, 0xbd, 0x76, 0x0c, 0x3f, 0x3d, 0xa6, 0xca, 0x47, 0xbc, 0x21, 0x03, 0x90, 0xbd, 0x4b, 0x39, 0x97, 0xbb, 0xc8, 0xec, 0xff, 0xbd, 0xfa, 0xbf, 0xd1, 0xbb, 0xc0, 0x9e, 0xf9, 0x3d, 0xca, 0x9c, 0x01, 0x3e, 0xdf, 0x69, 0x8b, 0x3d, 0xa3, 0xfa, 0x04, 0x3a, 0x8f, 0xfe, 0xf7, 0x3d, 0x2b, 0x66, 0xf9, 0x3d, 0xdd, 0xac, 0xc3, 0x3c, 0xe0, 0x4b, 0x25, 0xbc, 0x9a, 0x4f, 0x02, 0xbe, 0x2a, 0xcf, 0x16, 0x3d, 0x20, 0xb2, 0x0b, 0xbc, 0xd4, 0x4f, 0x3d, 0xbd, 0x37, 0xc7, 0x1d, 0xbd, 0x82, 0x6b, 0x1a, 0xbd, 0x82, 0x97, 0x07, 0x3d, 0xc3, 0x46, 0x02, 0xbe, 0x51, 0x45, 0x75, 0x3d, 0x51, 0x49, 0x6b, 0xbd, 0xbe, 0xee, 0xb6, 0xbc, 0x1a, 0x88, 0x86, 0x3d, 0xef, 0x0d, 0xde, 0x3d, 0xf2, 0x44, 0x99, 0x3d, 0xca, 0x0c, 0x16, 0xbd, 0xdc, 0x4a, 0x61, 0xbd, 0x9a, 0xe0, 0x06, 0x3e, 0x23, 0xe6, 0xa0, 0xbb, 0xbb, 0x38, 0xab, 0x3d, 0x61, 0x55, 0xbf, 0xbb, 0x24, 0xfe, 0x75, 0xbd, 0x91, 0x19, 0x02, 0xbe, 0x0d, 0x09, 0xf4, 0x3d, 0xd0, 0xe4, 0x25, 0xbd, 0x8e, 0xe9, 0xc0, 0xbd, 0xdd, 0x83, 0xa2, 0x3c, 0x14, 0x2c, 0x30, 0x3d, 0xed, 0xb4, 0xcd, 0xbd, 0x94, 0x46, 0x99, 0x3c, 0x79, 0x22, 0xb4, 0x3d, 0x28, 0x28, 0x32, 0xbd, 0x1f, 0x40, 0xb6, 0xbd, 0xb2, 0x9c, 0x7e, 0x3b, 0x24, 0x81, 0xe3, 0x3d, 0x77, 0xf6, 0x27, 0x3d, 0xca, 0x81, 0x31, 0xbd, 0x95, 0x0f, 0x07, 0x3e, 0x41, 0xfe, 0xf5, 0x3d, 0xb4, 0x2f, 0x10, 0x3e, 0x11, 0x16, 0xf7, 0xbc, 0x28, 0x1a, 0x4f, 0x3d, 0x53, 0xdf, 0x03, 0x3e, 0x90, 0xe0, 0xdd, 0x3d, 0xe1, 0x4a, 0xb2, 0xbd, 0xa2, 0x11, 0xff, 0x3d, 0x7e, 0x49, 0x5b, 0x3d, 0x61, 0xc3, 0x06, 0xbd, 0x96, 0x54, 0x0e, 0x3e, 0xbf, 0xc1, 0x8f, 0xbd, 0xf3, 0x97, 0xa5, 0x3c, 0xde, 0x62, 0x9f, 0x3d, 0xcf, 0xba, 0x32, 0xbd, 0xbf, 0xc9, 0xb2, 0x3d, 0x4e, 0x17, 0x0d, 0x3d, 0x8b, 0xcc, 0xc8, 0x3d, 0xa8, 0x4d, 0x89, 0x3d, 0xe6, 0xe9, 0x12, 0x3e, 0x60, 0x68, 0xd2, 0xbd, 0x3c, 0x41, 0x08, 0xbe, 0xd1, 0x4b, 0x8f, 0x3b, 0x11, 0x5f, 0xb1, 0xbd, 0x95, 0xb0, 0x1e, 0x3d, 0xa1, 0xc7, 0x21, 0x3d, 0xdd, 0xf5, 0x0c, 0x3e, 0x0c, 0x56, 0xe9, 0xbd, 0xe7, 0xa4, 0xb9, 0xbd, 0xe4, 0x82, 0xa4, 0x3d, 0xff, 0x82, 0x12, 0xbd, 0x5e, 0xc2, 0x1e, 0x3e, 0xf9, 0x39, 0x9e, 0xbb, 0x99, 0x32, 0xf6, 0xbc, 0x5e, 0xd2, 0xfe, 0xbd, 0x53, 0xf0, 0xa1, 0x3d, 0xec, 0x5c, 0x47, 0xbd, 0xcd, 0xba, 0x9b, 0x3d, 0xef, 0x6d, 0xe1, 0x3d, 0xac, 0x6c, 0xec, 0xba, 0x8a, 0x61, 0xe5, 0x3d, 0xf9, 0x11, 0xd4, 0x3d, 0x59, 0xa5, 0x39, 0x3c, 0x32, 0x28, 0xad, 0x3d, 0x61, 0x7a, 0xc5, 0x3d, 0x7f, 0x8a, 0x17, 0x3e, 0x97, 0x20, 0xaa, 0xbc, 0x55, 0xb4, 0xef, 0xbd, 0xe4, 0x5f, 0xae, 0x3d, 0x52, 0x9d, 0x02, 0x3e, 0xfc, 0xc7, 0x02, 0x3d, 0x42, 0xa0, 0x4d, 0x3c, 0xff, 0xd4, 0xab, 0xbd, 0x78, 0x0c, 0x64, 0xbd, 0xb7, 0xbb, 0x5d, 0x3d, 0xbf, 0x52, 0xfc, 0x3d, 0x7c, 0x86, 0xd3, 0xbc, 0xb3, 0x8a, 0x63, 0xbd, 0xca, 0xe6, 0xd6, 0x3d, 0x42, 0x36, 0x29, 0x3d, 0xb8, 0xef, 0x5c, 0xbd, 0xa4, 0x7b, 0x9c, 0xbd, 0x9b, 0xf4, 0xd3, 0x3d, 0x7a, 0x0d, 0x59, 0xbd, 0x70, 0x66, 0x1e, 0xbc, 0x91, 0xb8, 0x4b, 0x3d, 0x96, 0x24, 0xdb, 0xbd, 0x52, 0x10, 0xf2, 0x3d, 0x73, 0x40, 0xf8, 0xbd, 0x90, 0xe9, 0xd5, 0x3d, 0x68, 0x53, 0x27, 0xbc, 0x1e, 0xa1, 0xba, 0x3c, 0x94, 0x1d, 0xfc, 0x3d, 0x10, 0x7d, 0xc1, 0x3d, 0x67, 0xff, 0xe3, 0x3d, 0x18, 0xd7, 0x05, 0x3e, 0x79, 0x28, 0x87, 0x3d, 0x22, 0x41, 0xb4, 0xbc, 0x0c, 0x53, 0xa7, 0x3c, 0xfc, 0x51, 0x44, 0x3c, 0x96, 0x96, 0x0e, 0x3e, 0x44, 0x73, 0xec, 0xbd, 0xf1, 0xa8, 0x86, 0x3c, 0x26, 0x33, 0xa7, 0x3b, 0xfe, 0x39, 0x77, 0xbc, 0xad, 0x9d, 0xd9, 0x3c, 0x86, 0x3c, 0xbb, 0x3d, 0xb5, 0x30, 0xab, 0xbd, 0xb4, 0xa0, 0xe0, 0xbd, 0xb3, 0x59, 0xc7, 0xbd, 0x79, 0x26, 0x06, 0x3e, 0x2f, 0xe8, 0x3a, 0x3c, 0x1a, 0x91, 0x0a, 0x3e, 0x1f, 0x2e, 0x91, 0x3c, 0xff, 0xfa, 0x43, 0x3d, 0xaf, 0x6f, 0xf5, 0x3d, 0xa8, 0x1f, 0x59, 0xbd, 0xce, 0xb5, 0x16, 0x3e, 0x36, 0x5e, 0xac, 0xbc, 0x50, 0x5b, 0xcc, 0xbd, 0x4a, 0x68, 0x63, 0x3d, 0x23, 0x51, 0xf6, 0xbd, 0x6d, 0x33, 0xcb, 0x3d, 0xd8, 0xa7, 0xd2, 0xbd, 0x5b, 0x7b, 0x0b, 0xbd, 0x06, 0xad, 0xa7, 0x3d, 0x3d, 0xb2, 0xd5, 0xbd, 0x47, 0x3e, 0xe4, 0xbd, 0x67, 0xca, 0xc2, 0x3c, 0x87, 0x56, 0x9e, 0x3a, 0x96, 0xcb, 0xaf, 0x3d, 0x82, 0xa0, 0x01, 0x3e, 0xcf, 0x26, 0xe2, 0x3d, 0xeb, 0x70, 0xff, 0xbc, 0x19, 0xe3, 0x51, 0xbd, 0x3d, 0x98, 0xaf, 0x3d, 0x98, 0x68, 0xc6, 0x3c, 0x66, 0xf2, 0xef, 0x3d, 0xc1, 0x80, 0xb8, 0xbc, 0x2d, 0x87, 0x08, 0x3e, 0x33, 0xea, 0x19, 0x3e, 0xf9, 0x44, 0x94, 0xbd, 0x5a, 0xf8, 0xbc, 0x3d, 0xaa, 0x9c, 0x0a, 0x3d, 0x5d, 0x0a, 0x3c, 0x3d, 0x03, 0x7e, 0xb2, 0x3c, 0xc1, 0x17, 0xd1, 0x3d, 0x3f, 0x84, 0x99, 0x3d, 0xea, 0x88, 0x0a, 0x3d, 0xbd, 0xca, 0x74, 0x3c, 0x3a, 0x2d, 0x6d, 0xbc, 0xcb, 0x45, 0xec, 0xbc, 0x91, 0xb4, 0xe9, 0x3d, 0x60, 0x52, 0x41, 0x3d, 0x79, 0xa9, 0x80, 0x3d, 0x2e, 0x9d, 0xac, 0xbc, 0xf5, 0xa6, 0xb0, 0xbd, 0x96, 0x77, 0xcb, 0xbd, 0xf4, 0xea, 0x88, 0xbc, 0x3c, 0x9a, 0xa8, 0x3d, 0x23, 0x1d, 0x13, 0xbd, 0x0b, 0x8b, 0x0b, 0xbe, 0x3c, 0x4d, 0x2a, 0x3d, 0xdb, 0x80, 0x15, 0x3e, 0x54, 0xc8, 0xbc, 0xbc, 0x7e, 0x81, 0xe2, 0x3d, 0x85, 0xb9, 0x8c, 0x3d, 0x8f, 0x3e, 0x3d, 0xbd, 0x85, 0xbf, 0xff, 0x3d, 0x53, 0xea, 0x08, 0xbe, 0x48, 0xcb, 0x01, 0xbe, 0xa1, 0xee, 0xc2, 0xbd, 0x6b, 0x53, 0xed, 0x3c, 0x08, 0x77, 0xc6, 0xbc, 0xa4, 0x4f, 0x05, 0x3d, 0xc1, 0x49, 0xf9, 0xbd, 0x7a, 0x0b, 0xac, 0xbd, 0xf9, 0x9d, 0x04, 0x3e, 0x4e, 0x66, 0x4c, 0x3d, 0x46, 0x05, 0xd9, 0xbd, 0x43, 0x19, 0xfa, 0xbc, 0x4d, 0x96, 0x1a, 0x3e, 0xea, 0x8a, 0x0a, 0x3e, 0xe8, 0x06, 0x8c, 0x3c, 0xcd, 0x3d, 0x66, 0x3d, 0x4b, 0x25, 0x97, 0xbd, 0x22, 0x09, 0xa4, 0x3d, 0xd5, 0xc2, 0xda, 0xbd, 0xbd, 0xf0, 0xcd, 0xbd, 0x4d, 0x26, 0x92, 0xbd, 0x58, 0x51, 0x5c, 0xba, 0x2e, 0x31, 0x79, 0x3c, 0xcd, 0x58, 0x11, 0x3d, 0xf4, 0x0a, 0xb6, 0xbd, 0x57, 0x70, 0xf5, 0xbd, 0xcd, 0xc4, 0xaf, 0x3d, 0xd3, 0xb2, 0x9a, 0x3d, 0xc2, 0x97, 0xeb, 0x3d, 0x9b, 0xad, 0xc0, 0xbc, 0xb6, 0x37, 0x4c, 0x3c, 0x2e, 0x79, 0x56, 0xbd, 0xa7, 0x3a, 0x36, 0xbb, 0x7f, 0x00, 0xbc, 0xbd, 0x71, 0x73, 0xa5, 0xbd, 0xc8, 0x43, 0x11, 0xbe, 0xa5, 0x59, 0x57, 0x3d, 0x50, 0x01, 0xd5, 0xbd, 0x77, 0xba, 0x11, 0xbe, 0x29, 0xc8, 0x9d, 0x3c, 0x8e, 0xef, 0xcc, 0xbd, 0xe7, 0xea, 0x16, 0xbe, 0xcf, 0xf5, 0x16, 0xbe, 0x61, 0x59, 0x86, 0xbd, 0xf5, 0xd4, 0xf5, 0x3d, 0xe6, 0x6e, 0x0a, 0xbe, 0xe2, 0x5b, 0xc4, 0xbd, 0x21, 0x7f, 0x87, 0xba, 0x90, 0x43, 0x81, 0xbd, 0x1d, 0x3f, 0xf3, 0x3d, 0x0f, 0x48, 0x49, 0xbd, 0x63, 0xff, 0xba, 0x3d, 0x79, 0xac, 0xb1, 0x3d, 0x6f, 0xd2, 0xff, 0x3c, 0xe8, 0xc8, 0x6c, 0x3d, 0x57, 0x18, 0x36, 0xbd, 0x85, 0x85, 0xdb, 0x3d, 0xf4, 0x9e, 0xfc, 0xbd, 0x49, 0x68, 0xa7, 0xbd, 0x93, 0x58, 0x70, 0xbd, 0x86, 0x7e, 0x00, 0xbe, 0xcd, 0xcd, 0x57, 0x3d, 0x70, 0x82, 0x2b, 0x3d, 0x36, 0x77, 0x6f, 0xbd, 0xa5, 0xfd, 0x00, 0x3d, 0x1f, 0xd7, 0xe3, 0xbd, 0x58, 0xfd, 0xeb, 0xbd, 0x1d, 0x88, 0x51, 0xbd, 0x20, 0x6a, 0xb7, 0x3d, 0x8c, 0x4b, 0xa5, 0x3d, 0x62, 0xeb, 0x17, 0xbe, 0xa2, 0x0d, 0xe8, 0xbd, 0x07, 0x82, 0xca, 0x3d, 0x2a, 0xa5, 0x51, 0xbb, 0xfd, 0xfe, 0x03, 0x3e, 0x30, 0x16, 0x1c, 0xbe, 0x16, 0xa2, 0x7c, 0x3b, 0x1b, 0x38, 0x76, 0xbb, 0x24, 0x86, 0xcb, 0x3d, 0xb7, 0xd8, 0xaf, 0x3d, 0xef, 0x3c, 0x0e, 0xbe, 0xb0, 0xcd, 0x92, 0x3b, 0x84, 0xcf, 0xbe, 0x3d, 0x33, 0x57, 0xaf, 0xbd, 0xe4, 0xfd, 0xa0, 0xbb, 0xbe, 0xce, 0x92, 0x3c, 0x7b, 0x95, 0xea, 0x3b, 0xf9, 0xba, 0x0d, 0x3d, 0xe0, 0x62, 0x04, 0x3e, 0xed, 0x74, 0x5a, 0x3d, 0x82, 0x95, 0x1a, 0xbe, 0xb4, 0xe6, 0xde, 0x3b, 0x82, 0x8a, 0xa9, 0xbd, 0x9b, 0x4e, 0xb5, 0x3d, 0xdf, 0x6a, 0xd5, 0xbd, 0x1a, 0x3f, 0x01, 0x3e, 0xce, 0x4e, 0x09, 0xbe, 0x55, 0xa3, 0x8a, 0x3d, 0x71, 0x64, 0xec, 0x3d, 0xb4, 0x4b, 0xd1, 0xbd, 0x17, 0x14, 0xc9, 0x3d, 0x83, 0x7d, 0xe6, 0x3d, 0x15, 0xef, 0xf9, 0x3c, 0xa0, 0x6b, 0xde, 0x3c, 0xc5, 0x6b, 0x14, 0xbe, 0x6e, 0x15, 0x1d, 0x3d, 0x2a, 0xdf, 0x9e, 0xbc, 0xf6, 0x36, 0x1c, 0x3d, 0xcf, 0x04, 0x9b, 0xbb, 0xe6, 0x2a, 0x1e, 0x3d, 0x95, 0xb7, 0x3a, 0xbd, 0x66, 0x3c, 0x64, 0xbc, 0x88, 0x1c, 0x08, 0xbe, 0x74, 0x80, 0x4c, 0xbd, 0x6a, 0x1c, 0x05, 0xbe, 0xe6, 0x44, 0xe3, 0xbd, 0xee, 0xe3, 0x0f, 0xbe, 0xf5, 0x0b, 0xf0, 0xbd, 0xc5, 0x04, 0xaa, 0xbd, 0x8e, 0x85, 0xf6, 0xbd, 0x70, 0x94, 0xdb, 0xbd, 0x32, 0x9e, 0x9b, 0xbd, 0x14, 0x34, 0x06, 0x3d, 0xb6, 0x8e, 0xff, 0xbd, 0x88, 0xcb, 0x77, 0x3c, 0xf1, 0xdb, 0xfc, 0x3d, 0x90, 0x08, 0x09, 0xbd, 0xb0, 0xfe, 0xfb, 0xbd, 0x74, 0x79, 0xa0, 0xbd, 0xbb, 0xfc, 0x0b, 0xbe, 0xd8, 0x45, 0xfd, 0xbd, 0xd5, 0xa5, 0xda, 0x3c, 0xa8, 0xae, 0x16, 0x3d, 0xd0, 0xf5, 0xb0, 0x3d, 0x8a, 0x86, 0x1f, 0xbd, 0x48, 0x11, 0x21, 0xbd, 0x5e, 0x38, 0x45, 0x3d, 0xf3, 0xbb, 0xbe, 0x3d, 0xb6, 0x6a, 0xb1, 0xbd, 0xbb, 0x54, 0x7e, 0x3d, 0x46, 0x07, 0xcb, 0xbd, 0xf4, 0x8c, 0xab, 0xbd, 0x28, 0xf9, 0xff, 0xbd, 0x7a, 0x49, 0xd6, 0x3d, 0x05, 0x77, 0x1d, 0xbd, 0xdb, 0xba, 0x8a, 0xbb, 0x78, 0x43, 0x95, 0xbd, 0x8d, 0xd8, 0x90, 0x3c, 0x1d, 0x09, 0x23, 0x3c, 0xb2, 0x04, 0x00, 0xbe, 0x36, 0x99, 0xeb, 0x3d, 0xc6, 0x23, 0x32, 0x3b, 0xa8, 0xa3, 0xb9, 0x3d, 0x4f, 0x07, 0x8a, 0x3d, 0x69, 0x81, 0xf6, 0xbc, 0x77, 0x4b, 0xa2, 0x3d, 0x37, 0xb6, 0xd2, 0x3d, 0xbd, 0x35, 0xc5, 0xbc, 0x0f, 0xa6, 0x61, 0x3d, 0x61, 0x8b, 0x85, 0xbb, 0x9f, 0x06, 0xfc, 0xbc, 0xb0, 0xc0, 0x7a, 0xbd, 0xe4, 0x53, 0xc5, 0xbd, 0x89, 0x23, 0x4f, 0xba, 0xc9, 0xa1, 0x12, 0xbd, 0xd5, 0x85, 0xd8, 0x3d, 0xed, 0xbd, 0x6a, 0xbd, 0x0c, 0x3d, 0xf4, 0x3d, 0x73, 0x32, 0x78, 0xbd, 0xc6, 0x10, 0x02, 0x3e, 0x31, 0xc2, 0xf2, 0x3d, 0x40, 0x85, 0xb5, 0x3d, 0xeb, 0x96, 0x06, 0xbd, 0x5b, 0x0e, 0xbc, 0x3d, 0x2a, 0x21, 0x3e, 0xbd, 0x40, 0xab, 0x95, 0xbd, 0xd1, 0x1e, 0x24, 0xbd, 0xc0, 0x48, 0x5a, 0x3d, 0x0b, 0x0a, 0x76, 0x3d, 0x37, 0x82, 0xb2, 0xbd, 0xd3, 0x4e, 0xd7, 0x3d, 0xad, 0xdf, 0x32, 0x3d, 0x88, 0xc4, 0xfc, 0x3d, 0x7c, 0x5b, 0xe9, 0xbd, 0x87, 0x66, 0x04, 0x3e, 0xeb, 0x49, 0xf8, 0xbd, 0xc6, 0xda, 0x82, 0x3d, 0x27, 0x80, 0x04, 0xbe, 0xfd, 0xf8, 0x0d, 0xbd, 0x60, 0x2c, 0x8b, 0xbb, 0xb9, 0x71, 0xd8, 0xbd, 0x94, 0x84, 0x7f, 0x3d, 0x2b, 0xc2, 0x1a, 0x3c, 0x84, 0x2f, 0x05, 0xbc, 0x6c, 0xf5, 0xcd, 0x3d, 0xff, 0x93, 0x00, 0xbd, 0x49, 0x58, 0x72, 0x3d, 0x68, 0x38, 0x02, 0x3e, 0xde, 0xc0, 0xf1, 0xbd, 0x37, 0x6e, 0x13, 0x3d, 0x8f, 0x5a, 0xd3, 0xbd, 0x73, 0x22, 0xe1, 0xbd, 0x5f, 0xef, 0xd6, 0xbd, 0x60, 0x29, 0xf2, 0x3d, 0x21, 0x6c, 0x18, 0xbe, 0x6e, 0x5e, 0xe1, 0xbd, 0x8a, 0x0b, 0x94, 0xbd, 0x09, 0x5b, 0xd2, 0x3d, 0xe3, 0x71, 0x11, 0xbe, 0x2a, 0x56, 0xeb, 0x3d, 0x0a, 0xc5, 0x3b, 0xbd, 0x25, 0xe6, 0x8b, 0x3d, 0xd8, 0x35, 0xe8, 0xbd, 0x35, 0x12, 0xa2, 0x3d, 0xdb, 0x1c, 0xe1, 0x3d, 0xb4, 0x01, 0x11, 0xbe, 0x61, 0xe2, 0x90, 0x3d, 0x59, 0xce, 0x34, 0xbc, 0x20, 0x69, 0x64, 0xbd, 0xbb, 0x94, 0xfc, 0xbd, 0x25, 0x6c, 0x8d, 0x3b, 0xc2, 0xd5, 0x21, 0xbc, 0x7e, 0x50, 0xe8, 0xbd, 0x22, 0xcf, 0x34, 0x3c, 0xbb, 0x20, 0x03, 0xbe, 0xdc, 0xb5, 0xac, 0x3d, 0x20, 0xa2, 0x1e, 0xbe, 0xb7, 0x27, 0x84, 0xbd, 0x67, 0x07, 0xd9, 0xbd, 0xf3, 0xa5, 0x90, 0xbd, 0xd7, 0x87, 0xa1, 0xbd, 0xe1, 0x67, 0x74, 0xbd, 0x90, 0x65, 0x23, 0x3d, 0xa6, 0xe0, 0x18, 0x3d, 0xc3, 0x26, 0x1e, 0xbc, 0x87, 0xe4, 0xe7, 0x3d, 0xe7, 0x9e, 0xed, 0x3d, 0xd2, 0xaa, 0x30, 0x3d, 0x6b, 0xc2, 0x43, 0xbd, 0xe0, 0xd3, 0x6c, 0xbc, 0x0b, 0x4c, 0x83, 0xbd, 0xd2, 0xc2, 0xdd, 0xbd, 0x79, 0xfb, 0xb3, 0x3d, 0xdf, 0xb5, 0xcf, 0x3c, 0x8b, 0x2c, 0xda, 0x3d, 0x46, 0xd8, 0xc5, 0xbd, 0x29, 0xc7, 0x32, 0x3d, 0xf6, 0x8e, 0x77, 0x3d, 0x02, 0xe2, 0x99, 0xbd, 0xa3, 0x8c, 0x03, 0xbd, 0x33, 0xb2, 0x2d, 0x3d, 0xdc, 0xfc, 0xc0, 0x3d, 0xe4, 0x11, 0xa8, 0xbd, 0x98, 0x2f, 0xef, 0xbd, 0xda, 0x09, 0xf6, 0x3d, 0x84, 0xee, 0x01, 0xbe, 0xd7, 0x17, 0xb1, 0xbd, 0x40, 0x55, 0x10, 0xbc, 0xba, 0xc4, 0x6d, 0xbc, 0xcb, 0x29, 0x06, 0x3e, 0x3a, 0xf7, 0x86, 0x3d, 0x5e, 0x73, 0x85, 0xbc, 0x87, 0xbf, 0x3c, 0x3d, 0xb2, 0x56, 0x9f, 0xbd, 0xc0, 0xff, 0x4c, 0x3d, 0x49, 0xea, 0xca, 0xbd, 0x31, 0xbf, 0x42, 0xbd, 0xe4, 0xdb, 0x60, 0xbb, 0xb1, 0xaa, 0x62, 0x3d, 0xa9, 0x1d, 0x7e, 0x3d, 0x4f, 0x00, 0x43, 0x3c, 0x8f, 0x09, 0xf5, 0x3d, 0x8a, 0xd2, 0xa7, 0x3d, 0xcd, 0xe1, 0xe7, 0x3c, 0xf8, 0x6e, 0xe7, 0xbd, 0x0b, 0x7c, 0x7c, 0x3d, 0x48, 0xf6, 0xcb, 0x3b, 0x46, 0xe4, 0x16, 0xbd, 0xf8, 0x69, 0x2a, 0xbd, 0x29, 0xe3, 0x31, 0xbd, 0x68, 0x52, 0x2b, 0xbc, 0x7d, 0xab, 0xab, 0x3d, 0xd4, 0xa3, 0x41, 0x3d, 0x8a, 0x58, 0x0b, 0xbe, 0x36, 0x3b, 0xa8, 0xbd, 0xc1, 0x77, 0x99, 0x3d, 0x23, 0x8c, 0xa5, 0xbd, 0x85, 0xa6, 0xa3, 0xbc, 0x36, 0x46, 0x4c, 0x3c, 0x12, 0x29, 0xb2, 0x3d, 0xf4, 0xe3, 0x1a, 0x3d, 0xa4, 0x28, 0x8c, 0xbc, 0xb0, 0x97, 0xb3, 0x3d, 0x05, 0x96, 0x96, 0xbd, 0x35, 0x9d, 0x11, 0xbe, 0x5e, 0x2a, 0x0e, 0xbe, 0x75, 0x72, 0x00, 0x3d, 0x1c, 0xe3, 0xe3, 0x3c, 0x68, 0xc3, 0x0b, 0x3c, 0x04, 0x5a, 0x0e, 0x3d, 0xc7, 0x7f, 0xd4, 0x3d, 0xde, 0x20, 0x9b, 0xbd, 0x69, 0x58, 0x84, 0x3d, 0xcd, 0x80, 0x84, 0xbd, 0x8f, 0x94, 0x5c, 0xbd, 0xdc, 0x4f, 0x10, 0xbd, 0x3c, 0xe0, 0x04, 0x3e, 0xa1, 0x68, 0x81, 0x3d, 0x2b, 0xc3, 0x4b, 0xbb, 0xbe, 0xdb, 0x31, 0x3d, 0x6d, 0x91, 0xfe, 0xbd, 0x06, 0xd3, 0x0a, 0x3d, 0x65, 0xe9, 0x5e, 0xbd, 0xf0, 0xf0, 0x07, 0xbc, 0xed, 0xf2, 0xfe, 0x3d, 0x05, 0x49, 0xd5, 0x3d, 0xcd, 0x8c, 0x05, 0x3c, 0x0a, 0xf2, 0xf2, 0x3c, 0x35, 0x4e, 0x2e, 0x3d, 0x7f, 0x25, 0xd2, 0xbc, 0x61, 0x55, 0xd3, 0xbb, 0x6f, 0x50, 0x8e, 0x3d, 0xa9, 0x58, 0x64, 0x3c, 0x10, 0x5c, 0x55, 0x3c, 0xdd, 0x27, 0x72, 0xbb, 0x28, 0xf4, 0x0f, 0xbe, 0xd1, 0xf9, 0xa9, 0x3d, 0x7b, 0xe0, 0xd1, 0xbc, 0xe6, 0xd0, 0x5d, 0xbc, 0xca, 0xa1, 0xd3, 0xbc, 0x27, 0x56, 0x09, 0xbe, 0xd8, 0xa8, 0x8c, 0xbd, 0x66, 0x28, 0x90, 0x3d, 0x23, 0x81, 0x59, 0xbd, 0x5b, 0x30, 0xc0, 0xbc, 0x55, 0x5c, 0xb8, 0xbd, 0xa3, 0x95, 0x6c, 0x3c, 0xa0, 0xc3, 0x19, 0xbd, 0x4f, 0x65, 0x56, 0x3d, 0xb0, 0xb4, 0xf3, 0xbd, 0x70, 0x18, 0x2e, 0x3c, 0x3a, 0xe5, 0x10, 0xbe, 0x9b, 0x01, 0x03, 0x3e, 0x59, 0x42, 0x01, 0xbd, 0x9e, 0xcc, 0x98, 0xbd, 0xb1, 0xb1, 0xcc, 0x3d, 0x58, 0x05, 0x92, 0xbd, 0xdd, 0x01, 0xc4, 0x3d, 0x22, 0x07, 0x33, 0x3d, 0x0b, 0xaa, 0x4c, 0x3d, 0x82, 0xad, 0x14, 0xbe, 0xb3, 0x4c, 0x0d, 0xbe, 0x9f, 0x92, 0x17, 0xbe, 0xee, 0xc1, 0xd8, 0xbd, 0x52, 0x7d, 0xc8, 0x3d, 0xfc, 0x75, 0xe9, 0xbd, 0xf5, 0xc9, 0xbf, 0x3c, 0x9c, 0x6b, 0xd4, 0x3d, 0xb1, 0x68, 0xf5, 0x3b, 0x21, 0xab, 0xa4, 0x3d, 0x61, 0xad, 0xb1, 0xbd, 0x0a, 0x41, 0xbe, 0xbd, 0x2d, 0xf6, 0xb5, 0xbb, 0x96, 0xe3, 0xf7, 0xbd, 0xea, 0xaf, 0x71, 0xbd, 0x57, 0x7f, 0x92, 0x3d, 0xb2, 0xe6, 0x82, 0xbd, 0x48, 0xba, 0x00, 0xbe, 0x8f, 0xb6, 0x8c, 0xbc, 0x8b, 0x02, 0xe2, 0x3d, 0x73, 0xb3, 0x7c, 0xbd, 0x2f, 0x60, 0xe6, 0x3d, 0xa0, 0xcf, 0x4c, 0xbd, 0x3e, 0x03, 0x02, 0xbe, 0x55, 0x8f, 0xca, 0xbd, 0x01, 0xdb, 0xe9, 0x3d, 0x1b, 0x17, 0xb4, 0x3b, 0xea, 0x13, 0x05, 0x3d, 0xb5, 0xfa, 0x03, 0x3e, 0x64, 0x60, 0x4a, 0x3d, 0xd2, 0x73, 0xce, 0x3d, 0xc7, 0x3b, 0x19, 0x3d, 0x10, 0xc1, 0x0a, 0xbe, 0x66, 0x98, 0xe5, 0xbd, 0x29, 0x48, 0x31, 0xbd, 0x18, 0xf5, 0x79, 0x3d, 0xca, 0x93, 0x07, 0xbe, 0xce, 0x41, 0x5b, 0xbd, 0x4a, 0x01, 0x96, 0x3d, 0x16, 0x8c, 0x0e, 0xbd, 0x06, 0x38, 0xfd, 0xbd, 0xa6, 0x6a, 0xb6, 0x3c, 0x2b, 0x7b, 0x00, 0x3c, 0xc8, 0x8f, 0x77, 0xbd, 0x0b, 0x4c, 0xa7, 0x3d, 0x5d, 0x82, 0x80, 0xbd, 0xfc, 0xb4, 0xe5, 0xbd, 0xdc, 0xf2, 0x07, 0x3d, 0xde, 0x44, 0x5e, 0xbd, 0x38, 0x69, 0xc5, 0x3d, 0xea, 0x17, 0xce, 0x3d, 0x3d, 0xcd, 0x90, 0xbd, 0x8c, 0x25, 0xfe, 0xbc, 0xca, 0xf8, 0x0d, 0xbd, 0x92, 0x56, 0xa3, 0xbc, 0x2f, 0xa5, 0x04, 0xbe, 0x5b, 0x76, 0xf1, 0x3d, 0x5e, 0x4d, 0x44, 0xbd, 0x5d, 0x21, 0xea, 0xbd, 0x4c, 0xd6, 0x94, 0xbd, 0x00, 0x28, 0x28, 0xbd, 0xd3, 0xd2, 0xad, 0x3d, 0x63, 0x1a, 0xf2, 0x3d, 0x49, 0x42, 0xaa, 0xbd, 0xa6, 0x57, 0x60, 0x3c, 0x26, 0x2f, 0xff, 0xbd, 0x3d, 0xa0, 0x20, 0xbc, 0x70, 0x47, 0x0c, 0x3c, 0xcf, 0x0c, 0x05, 0x3e, 0xc9, 0x36, 0x8e, 0xbd, 0x14, 0xf4, 0x1c, 0xbd, 0x71, 0xda, 0x57, 0xbd, 0x91, 0xf6, 0xee, 0xbc, 0x6f, 0x7e, 0x9d, 0xbd, 0xa7, 0x97, 0x86, 0xbd, 0x17, 0xcb, 0x59, 0xbd, 0x9e, 0x17, 0x31, 0x3d, 0xcd, 0x82, 0x8f, 0x3d, 0x74, 0x50, 0xb6, 0x3d, 0x15, 0x71, 0x10, 0xbb, 0x70, 0x9f, 0x9b, 0x3d, 0xa7, 0xd1, 0xe8, 0xbb, 0xc6, 0xef, 0x3c, 0x3d, 0x5e, 0xcc, 0xb5, 0x3d, 0x2d, 0x7c, 0x78, 0x3d, 0xb9, 0xdb, 0x16, 0x3d, 0xd4, 0x17, 0x1c, 0xbe, 0x38, 0x1d, 0x0b, 0xbe, 0x4b, 0x27, 0xee, 0xbd, 0x1f, 0xc8, 0xc4, 0xbd, 0xfe, 0xfa, 0xf7, 0xbb, 0x5d, 0x6c, 0x9d, 0x3d, 0x03, 0x55, 0xab, 0xbc, 0xe1, 0x57, 0x00, 0x3e, 0xbc, 0x9b, 0xd3, 0x3d, 0xe4, 0x85, 0x00, 0x3e, 0xbf, 0xde, 0xa4, 0x3d, 0x09, 0x84, 0x90, 0xbd, 0x25, 0xdf, 0xc9, 0x3d, 0x78, 0x2a, 0xe3, 0xbc, 0x8a, 0x2e, 0xbf, 0xbd, 0xb6, 0xcc, 0x17, 0xbe, 0xa5, 0xea, 0xf2, 0xbd, 0xbd, 0x7b, 0x2c, 0xbd, 0x0d, 0xd5, 0x95, 0xbc, 0x9e, 0x68, 0xb6, 0x3d, 0xfb, 0x6f, 0xb1, 0xbd, 0x0e, 0x4d, 0x00, 0x3e, 0xc8, 0xfc, 0x77, 0x3d, 0xf0, 0x98, 0xdb, 0xbd, 0xfa, 0x84, 0x48, 0x3d, 0x94, 0xf6, 0x88, 0x3c, 0x43, 0xeb, 0x7f, 0x3d, 0xb6, 0x3d, 0x96, 0xbd, 0x06, 0x96, 0xcf, 0x3d, 0x89, 0xbf, 0xc4, 0x3c, 0xbd, 0xb4, 0x18, 0xbe, 0x8c, 0xc7, 0xce, 0xbd, 0x6b, 0xcd, 0xb0, 0x3c, 0x4b, 0x58, 0x70, 0x3d, 0x5f, 0x82, 0x92, 0x3d, 0x31, 0x0d, 0xe9, 0x3d, 0xb0, 0xbe, 0xa0, 0xbd, 0x93, 0xfb, 0xd3, 0xbd, 0xf9, 0x13, 0x9d, 0x3c, 0x61, 0x80, 0xab, 0xbd, 0xc7, 0x06, 0x95, 0xbd, 0x60, 0x6d, 0x96, 0x3d, 0x4d, 0x42, 0x02, 0x3d, 0x7c, 0xe0, 0xd7, 0x3d, 0x09, 0xce, 0xdb, 0xbc, 0xaa, 0xfd, 0xa2, 0x3d, 0x3d, 0x64, 0x9a, 0x3d, 0xa1, 0xbf, 0xef, 0x3d, 0xd6, 0x1f, 0x45, 0x3d, 0xcf, 0x6c, 0x0a, 0xbe, 0xac, 0xac, 0xc9, 0xbd, 0x48, 0xeb, 0x7a, 0xbd, 0xff, 0x0e, 0xb0, 0xbc, 0x8e, 0x3e, 0x80, 0x3d, 0x91, 0x2f, 0xc1, 0x3c, 0xed, 0x8a, 0xa8, 0xbd, 0x04, 0xc4, 0x86, 0xbd, 0xf4, 0x8a, 0xd5, 0x3d, 0xe1, 0x8c, 0xa9, 0x3d, 0xa6, 0xe3, 0xf5, 0x3d, 0x10, 0x4b, 0xfd, 0xbc, 0x3b, 0xc6, 0xea, 0x3d, 0xd9, 0x3a, 0x8a, 0xbd, 0xcc, 0x7a, 0xf3, 0xbc, 0x7e, 0x74, 0xb9, 0x3d, 0xc4, 0x40, 0xf3, 0x3c, 0x23, 0xa8, 0xc5, 0xbc, 0xd6, 0xe8, 0x86, 0xbd, 0x5e, 0x0b, 0xbe, 0xbd, 0x6c, 0x20, 0xd4, 0x3d, 0x9a, 0xeb, 0x2a, 0xbd, 0x69, 0xd8, 0x0d, 0xbe, 0x79, 0x0e, 0x10, 0xbe, 0x19, 0xa6, 0x1b, 0xbe, 0xfd, 0x07, 0xef, 0xbd, 0x3f, 0x91, 0xc0, 0xbc, 0xc6, 0x96, 0xd6, 0xbd, 0xe3, 0xa5, 0xd0, 0xbc, 0xa8, 0x32, 0x9a, 0xbd, 0xb2, 0x5b, 0xf9, 0xbc, 0xf7, 0x6d, 0x5c, 0x3d, 0x5b, 0xa4, 0x0e, 0x3d, 0xc8, 0x7c, 0x64, 0xbd, 0x17, 0xe5, 0x9f, 0xbd, 0x5c, 0x8f, 0xf0, 0xbd, 0x42, 0x67, 0xb0, 0x3b, 0x74, 0xe8, 0x57, 0xbd, 0x19, 0xac, 0x9d, 0x3d, 0xf8, 0x3c, 0x41, 0x3a, 0xba, 0xd2, 0x04, 0xbe, 0x3e, 0x49, 0x9b, 0xbc, 0xa2, 0x5f, 0xa3, 0x3d, 0x99, 0xd5, 0x5d, 0x3d, 0x55, 0xae, 0x8a, 0x3d, 0xb7, 0x0c, 0x46, 0xbb, 0x3a, 0xea, 0xe4, 0xbd, 0x69, 0x7a, 0xae, 0x3d, 0xeb, 0x0f, 0xc4, 0xbd, 0xbf, 0x90, 0x67, 0xbd, 0xb6, 0xb3, 0x18, 0xbd, 0xe8, 0x88, 0xcd, 0x3d, 0xfc, 0xba, 0x68, 0xbc, 0x04, 0x12, 0x80, 0xbd, 0x36, 0xce, 0xf7, 0xbd, 0xf4, 0xf2, 0x36, 0xbc, 0x2e, 0xcf, 0x31, 0xbc, 0xf2, 0x72, 0xfa, 0xbd, 0xaa, 0x11, 0x1c, 0xbe, 0x48, 0x4c, 0x43, 0xbc, 0x59, 0xe7, 0xab, 0x3d, 0x44, 0x06, 0x9c, 0x3c, 0x90, 0x43, 0xa7, 0x3d, 0xaa, 0x4f, 0x3d, 0xbd, 0xb2, 0x95, 0x16, 0x3d, 0xf7, 0x7a, 0x21, 0xbc, 0x90, 0xc8, 0x98, 0xbd, 0xbc, 0x48, 0x0a, 0xbe, 0xd3, 0x08, 0x03, 0xbe, 0x4b, 0x1b, 0xcd, 0x3d, 0x99, 0x48, 0x7b, 0xbd, 0xc1, 0xcb, 0xed, 0x3c, 0x3d, 0x9b, 0x08, 0x3e, 0x03, 0xd7, 0x8f, 0x3d, 0x24, 0xfa, 0xa7, 0xbd, 0x87, 0xdd, 0x7c, 0x3d, 0x6a, 0x62, 0xc3, 0x3d, 0x3e, 0x0f, 0xe9, 0x3d, 0x8f, 0x1a, 0x07, 0x3d, 0x65, 0x0a, 0xfd, 0xbd, 0x78, 0xe2, 0xde, 0xbc, 0x45, 0x53, 0xc3, 0xbd, 0x69, 0x4b, 0xa4, 0x3d, 0x64, 0x99, 0x73, 0xbd, 0xa7, 0xb8, 0x36, 0x3d, 0xff, 0xf9, 0x53, 0xbd, 0x94, 0x13, 0x8b, 0xbd, 0x2a, 0x94, 0x31, 0xbd, 0x4b, 0x99, 0xda, 0x3d, 0x16, 0xe1, 0x01, 0x3e, 0x84, 0x3f, 0xa2, 0xbd, 0x96, 0xaa, 0xf0, 0xbd, 0xc9, 0xa9, 0xa5, 0x3d, 0x4e, 0xd2, 0x56, 0x3c, 0x17, 0x13, 0xb8, 0x3d, 0xe7, 0x3a, 0x87, 0x3d, 0x87, 0x0a, 0xa0, 0xbd, 0x37, 0xed, 0xc2, 0xbc, 0x9b, 0xdf, 0xd6, 0x3c, 0xc4, 0xda, 0xa3, 0x3d, 0xc2, 0x12, 0x0f, 0xbe, 0xcd, 0x3d, 0x13, 0xbe, 0x66, 0x6d, 0x22, 0xbd, 0xa6, 0xa4, 0x67, 0xbd, 0xdf, 0xba, 0x18, 0xbe, 0x9a, 0x6f, 0x02, 0xbe, 0x15, 0x53, 0xd6, 0xbd, 0x57, 0xa5, 0x45, 0xbd, 0x85, 0x40, 0x07, 0xbe, 0xce, 0x50, 0xea, 0xbd, 0xc3, 0xf7, 0xf8, 0x3d, 0xdd, 0x11, 0xdf, 0x3c, 0x90, 0x04, 0x71, 0x3b, 0x2a, 0x28, 0xa6, 0x3d, 0x38, 0xae, 0xb2, 0x3a, 0x6f, 0x5a, 0xd3, 0x3d, 0x6d, 0x1a, 0x92, 0x3d, 0x62, 0x3e, 0x1b, 0xbc, 0xfa, 0xca, 0x17, 0xbe, 0x13, 0x4c, 0xb8, 0xbd, 0x71, 0x27, 0xd2, 0xbd, 0xf6, 0x03, 0x0a, 0xbe, 0x13, 0x8d, 0xaa, 0x3d, 0x33, 0x75, 0xc4, 0x3d, 0xc8, 0x1a, 0xf8, 0x3d, 0xf7, 0x97, 0xd6, 0x3c, 0x28, 0xe8, 0xfc, 0x3c, 0x55, 0x56, 0x3f, 0x3c, 0x46, 0x38, 0xac, 0x3d, 0xc8, 0x46, 0xc6, 0xbc, 0x57, 0x5e, 0xe1, 0x3d, 0x40, 0x58, 0x1d, 0x3d, 0x46, 0x08, 0x65, 0x3d, 0xbf, 0xde, 0x9a, 0xbd, 0x4c, 0x94, 0xe1, 0x3b, 0x52, 0x10, 0xc5, 0x3d, 0x3f, 0x6d, 0xaa, 0x3d, 0x23, 0x9a, 0x0d, 0xbd, 0x81, 0x54, 0xf9, 0xbb, 0xf8, 0x7a, 0xb5, 0xbd, 0x69, 0x2f, 0xbb, 0xbd, 0xe7, 0x0b, 0xaf, 0xbd, 0x25, 0x35, 0x01, 0xbc, 0x94, 0xde, 0xe4, 0xbb, 0xea, 0x86, 0xfb, 0x3d, 0x61, 0x4e, 0xb3, 0x3d, 0xa6, 0x93, 0x85, 0xbd, 0xed, 0xb5, 0x8e, 0x3d, 0xcf, 0x4c, 0xc6, 0x3d, 0x54, 0xbe, 0xb6, 0x3d, 0xaa, 0x5a, 0xee, 0xbd, 0xcc, 0x73, 0xd2, 0x3a, 0x1a, 0x52, 0x81, 0xbc, 0xf2, 0xf3, 0x53, 0xbc, 0x9a, 0x47, 0x9b, 0xbd, 0xc9, 0x52, 0x57, 0xbd, 0x8a, 0xac, 0xfb, 0x3d, 0x83, 0x28, 0x11, 0xbe, 0xbd, 0xe6, 0x94, 0xbd, 0x5a, 0x6d, 0x90, 0xbd, 0x0b, 0xa9, 0x29, 0xbb, 0x8a, 0x16, 0xa0, 0xbd, 0x9a, 0xde, 0xb7, 0xbc, 0x18, 0x15, 0xb0, 0xbd, 0xc6, 0x45, 0xcc, 0xbd, 0xb1, 0xac, 0x11, 0xbe, 0xff, 0x19, 0x96, 0x3d, 0x92, 0x1c, 0xb3, 0x3d, 0x13, 0x37, 0x85, 0xbc, 0x43, 0x53, 0xac, 0x3d, 0x45, 0x5b, 0x6b, 0xbd, 0x02, 0xac, 0x83, 0x3d, 0xb0, 0x85, 0x0e, 0xbe, 0x53, 0x5c, 0x0f, 0xbc, 0xcd, 0xd2, 0xf4, 0x3c, 0x39, 0x43, 0x03, 0xbe, 0x87, 0x1f, 0x09, 0x3d, 0xf4, 0x70, 0xe8, 0x3d, 0x4e, 0x13, 0x19, 0x3d, 0x71, 0xb8, 0xa9, 0x3d, 0x44, 0x9a, 0xf8, 0x3d, 0xe3, 0x65, 0xca, 0x3d, 0x32, 0x96, 0x3b, 0xbc, 0xed, 0xa6, 0x09, 0xbe, 0x25, 0xed, 0xe0, 0xbd, 0x7a, 0xc7, 0x8c, 0x3d, 0x46, 0x4c, 0xf7, 0xbd, 0x1f, 0x0f, 0x4c, 0xbd, 0x0b, 0xe4, 0x0e, 0xbe, 0x5a, 0x1e, 0xd2, 0xbd, 0x97, 0x6e, 0xff, 0xbd, 0x4a, 0x12, 0xf4, 0xbd, 0x81, 0x77, 0x92, 0xbd, 0xf1, 0x21, 0xe7, 0x3d, 0xb1, 0x2f, 0xb9, 0xbd, 0xbf, 0x9c, 0x3a, 0xbc, 0x6c, 0xf6, 0xb9, 0x3d, 0x06, 0x7c, 0x87, 0x3d, 0xb5, 0x34, 0x9d, 0x3d, 0x5f, 0x33, 0x5d, 0xbb, 0x17, 0x6f, 0x67, 0x3c, 0x7d, 0x48, 0x4f, 0x3d, 0x65, 0x6f, 0xec, 0xbb, 0x3b, 0x22, 0xf9, 0x3d, 0xa1, 0x25, 0x63, 0x3d, 0xfb, 0x1b, 0x8d, 0xbd, 0x1e, 0xce, 0xa0, 0x3d, 0x50, 0x21, 0xd6, 0xbd, 0x28, 0x92, 0x8f, 0x3d, 0xfc, 0x0f, 0xe8, 0xbd, 0xe0, 0x34, 0x09, 0xbe, 0x07, 0x24, 0xb8, 0xbd, 0xc3, 0x21, 0x6d, 0xbd, 0x76, 0x82, 0xab, 0x3d, 0x51, 0xf5, 0x1a, 0xbe, 0x4a, 0xcd, 0xf1, 0xbc, 0x63, 0x37, 0xfe, 0x3d, 0x02, 0x3b, 0x94, 0x3d, 0x94, 0xe5, 0x77, 0xbb, 0xab, 0x3f, 0xe2, 0x3d, 0x0c, 0x1a, 0x96, 0x3c, 0x3d, 0xd6, 0xa3, 0xbd, 0x8f, 0x83, 0x29, 0xbd, 0xb6, 0x88, 0xa5, 0x3d, 0xb6, 0xbd, 0xf2, 0xbd, 0xb1, 0xda, 0x92, 0x3c, 0x73, 0xe1, 0xa9, 0x3d, 0xa0, 0x9e, 0x10, 0xbe, 0x12, 0xdf, 0xa8, 0xbd, 0xaf, 0x1f, 0xac, 0xbd, 0x60, 0xcd, 0xf3, 0xbd, 0xc2, 0xfb, 0x2f, 0xbd, 0xcb, 0x22, 0x07, 0xbd, 0x2e, 0xf0, 0x00, 0xbe, 0x35, 0xe3, 0xf6, 0xbc, 0x19, 0x79, 0xc3, 0x3d, 0x06, 0x38, 0x08, 0x3d, 0xe2, 0x2f, 0x17, 0xbd, 0xb1, 0xdb, 0x90, 0xbc, 0xfd, 0x52, 0x09, 0xbe, 0x86, 0x1a, 0x9c, 0x3d, 0xfe, 0x7e, 0xce, 0x3d, 0x13, 0x33, 0xa3, 0xbb, 0x50, 0xa6, 0xd6, 0xbd, 0x01, 0x66, 0xae, 0x3d, 0x0e, 0xf5, 0x65, 0x3d, 0x10, 0xe9, 0x16, 0xbe, 0xe0, 0x15, 0xae, 0xbc, 0x32, 0x3d, 0xa8, 0x3d, 0x26, 0x80, 0x1f, 0xbd, 0x67, 0x66, 0xa2, 0xbb, 0x35, 0xc8, 0x63, 0xbc, 0x3c, 0x2e, 0x16, 0xbc, 0x1b, 0x63, 0x45, 0x3b, 0xa1, 0x14, 0xf6, 0xbd, 0xef, 0x49, 0xb7, 0xbd, 0x04, 0x15, 0xc1, 0xbd, 0x7b, 0xf9, 0x97, 0xbc, 0xa7, 0xf7, 0x90, 0x3d, 0xc3, 0x5e, 0x73, 0xbd, 0x41, 0xf7, 0xcf, 0x3d, 0x4e, 0xbf, 0x85, 0x3b, 0xdc, 0xae, 0xde, 0xbd, 0x1d, 0x76, 0xd6, 0xbc, 0x2b, 0xda, 0x64, 0xbd, 0xcd, 0xbf, 0x12, 0xbe, 0xcf, 0xd0, 0x1c, 0xbe, 0x19, 0xb3, 0x3d, 0xbd, 0xe9, 0x5b, 0xb7, 0x3d, 0xbb, 0x99, 0x04, 0x3e, 0xc9, 0xaa, 0xfa, 0x3d, 0x16, 0xc5, 0xc5, 0xbd, 0x21, 0xde, 0xe2, 0x3d, 0xe4, 0x2d, 0x5c, 0xbd, 0x37, 0xde, 0xd5, 0xbd, 0x94, 0x32, 0xcb, 0x3d, 0x0d, 0x91, 0x80, 0x3d, 0x5a, 0x82, 0xaf, 0xbc, 0xa8, 0x2d, 0x00, 0xbe, 0xfe, 0xee, 0xb4, 0x3c, 0x98, 0x2f, 0xb5, 0x3c, 0x27, 0x87, 0xc5, 0x3c, 0xab, 0x6c, 0x87, 0xbd, 0x59, 0x00, 0x83, 0xbd, 0x04, 0xfd, 0xc1, 0x3d, 0x1e, 0x59, 0x4c, 0xbc, 0x16, 0xe5, 0x96, 0xbd, 0xa7, 0x25, 0x01, 0xbc, 0x97, 0x5a, 0x4c, 0xbd, 0xde, 0xd9, 0x07, 0xbe, 0x39, 0x03, 0xb5, 0xbd, 0x02, 0xce, 0xc4, 0xbd, 0x1a, 0x1a, 0x4d, 0xbd, 0x3b, 0xac, 0x1b, 0xbd, 0x1c, 0x30, 0xce, 0x3d, 0x86, 0x95, 0xf4, 0x3d, 0x19, 0xe1, 0x93, 0x3d, 0x9d, 0x41, 0xb9, 0xbd, 0x36, 0x3c, 0xbc, 0xbd, 0x8f, 0x3c, 0xcf, 0xbc, 0x25, 0x7c, 0x17, 0x3c, 0xcc, 0xd4, 0x14, 0xbc, 0xbc, 0xb2, 0x7a, 0xbd, 0xd0, 0xba, 0xee, 0xbd, 0xff, 0xbc, 0xbc, 0x3d, 0xd7, 0xee, 0x31, 0x3d, 0x40, 0xfc, 0x87, 0x3c, 0x69, 0x70, 0xd9, 0x3c, 0x02, 0x0f, 0x36, 0x3d, 0x65, 0x7a, 0x55, 0x3d, 0x54, 0x93, 0x1f, 0x3d, 0xb8, 0x76, 0xc1, 0xbc, 0x77, 0xb8, 0x16, 0x3d, 0xfd, 0xcd, 0xab, 0x3d, 0x51, 0x14, 0x66, 0xbd, 0x7a, 0x45, 0xa6, 0x3b, 0xf8, 0x83, 0xa7, 0x3c, 0x72, 0xb5, 0x7e, 0xbd, 0x90, 0xae, 0x6a, 0xbd, 0x55, 0x4f, 0x15, 0xbe, 0xaf, 0xec, 0xb7, 0x3d, 0xa0, 0x0b, 0x99, 0x38, 0x9c, 0x86, 0x06, 0xbe, 0x0f, 0xc7, 0xab, 0xbd, 0x3b, 0x2f, 0xde, 0xbd, 0xd0, 0xf8, 0xdd, 0xbd, 0x84, 0xf3, 0x87, 0x3d, 0x8b, 0x5c, 0xe7, 0xbd, 0xf6, 0xb0, 0x05, 0x3e, 0x53, 0xb4, 0x56, 0x3d, 0x11, 0x4c, 0xa1, 0x3b, 0x8e, 0xe5, 0x87, 0xbd, 0x3c, 0xcf, 0xef, 0xbd, 0xac, 0x42, 0xd8, 0xbc, 0xa3, 0xfb, 0x5f, 0xbc, 0xcb, 0xe8, 0xaa, 0x3d, 0x0d, 0x55, 0x9b, 0xbd, 0x4e, 0xc2, 0xf2, 0x3d, 0xcf, 0x2c, 0x12, 0xbd, 0xae, 0xb5, 0xc6, 0xbd, 0x20, 0x42, 0xcc, 0xbd, 0xe6, 0x14, 0x73, 0x3c, 0xb3, 0x41, 0x8b, 0x3d, 0x74, 0x85, 0x9f, 0xbd, 0x6a, 0xcd, 0x00, 0xbe, 0x57, 0x1c, 0xe2, 0x3d, 0xc0, 0x74, 0x26, 0x3d, 0xe3, 0xb2, 0x2e, 0x3d, 0x56, 0x32, 0xab, 0xbd, 0xe0, 0x56, 0x06, 0xbe, 0xaf, 0x7f, 0xf7, 0xbd, 0x7a, 0x46, 0x8e, 0x3d, 0xb1, 0xb5, 0x11, 0x3d, 0x1a, 0x15, 0xa0, 0x3d, 0xb5, 0x8d, 0xaa, 0xbd, 0x47, 0x7a, 0xdb, 0x3d, 0x50, 0xb8, 0x26, 0xbc, 0x95, 0x40, 0x80, 0x3d, 0xe6, 0x87, 0xfc, 0x3d, 0xbe, 0x48, 0xa3, 0xbc, 0x8a, 0x2d, 0xa1, 0x3d, 0x0e, 0x9e, 0x4f, 0x3c, 0x69, 0x95, 0xa0, 0xbd, 0x4a, 0xb3, 0x01, 0x3e, 0x09, 0x45, 0xb6, 0xbd, 0xf9, 0xe3, 0x9c, 0x3d, 0x79, 0x85, 0x8d, 0xbd, 0x11, 0x6c, 0xc4, 0xba, 0x6c, 0x38, 0x9c, 0x3d, 0x0f, 0xb1, 0xeb, 0x3d, 0xf1, 0x2b, 0x4e, 0x3d, 0x9d, 0x68, 0xde, 0xbd, 0x5a, 0x26, 0xa3, 0xbd, 0x74, 0x5d, 0x1b, 0x3d, 0x08, 0x67, 0xd3, 0x3c, 0x1b, 0x47, 0x45, 0xbb, 0x60, 0xbd, 0x0a, 0xbe, 0xe6, 0xaf, 0xe5, 0xbc, 0x1b, 0x83, 0x86, 0xbd, 0x44, 0x8a, 0x1d, 0xbb, 0x78, 0x04, 0x07, 0x3d, 0x0e, 0x8a, 0x0d, 0xbe, 0xc2, 0xa8, 0x44, 0x3d, 0x01, 0xcf, 0xbe, 0x3d, 0x93, 0x96, 0xe0, 0xbd, 0x70, 0x4e, 0xb3, 0x3d, 0x59, 0x98, 0xda, 0x3d, 0xd9, 0x1a, 0x0c, 0x3e, 0x22, 0x08, 0x04, 0x3e, 0x99, 0x5e, 0xcf, 0x3d, 0xa7, 0x47, 0x06, 0xbc, 0x75, 0xee, 0xec, 0xbd, 0x26, 0x82, 0xbd, 0xbd, 0x35, 0xae, 0xd5, 0x3d, 0x58, 0xfb, 0x06, 0xbd, 0x4a, 0x4f, 0x0c, 0x3e, 0xe4, 0xba, 0xe1, 0xbd, 0xc5, 0xe7, 0x14, 0x3e, 0x43, 0x82, 0x56, 0x3d, 0xec, 0x1a, 0x0c, 0x3e, 0x2b, 0x78, 0x87, 0xbd, 0xad, 0x38, 0xa3, 0xbd, 0x2a, 0x5e, 0xce, 0x3d, 0xf0, 0x04, 0xc7, 0x3d, 0x7b, 0xe5, 0xe1, 0xbd, 0x9c, 0xd5, 0x40, 0x3d, 0xbc, 0xd7, 0x05, 0xbe, 0xc4, 0xb1, 0x1b, 0x3e, 0x15, 0x6a, 0xe8, 0x3c, 0xb0, 0xe4, 0xcb, 0x3c, 0x46, 0xb5, 0xb8, 0xbb, 0x49, 0xfd, 0xe2, 0x3d, 0x13, 0x6e, 0x06, 0xbe, 0x84, 0xc8, 0xd0, 0xbc, 0xc2, 0xaf, 0x28, 0x3d, 0x15, 0xc6, 0x3a, 0x3d, 0x12, 0x9d, 0xd6, 0x3d, 0x11, 0x94, 0x9f, 0x3d, 0x9d, 0xea, 0xd8, 0x3c, 0xe3, 0xea, 0x9c, 0x3d, 0x5a, 0x55, 0xbe, 0x3c, 0x9b, 0xf9, 0xbe, 0x3d, 0xdb, 0xd7, 0x28, 0x3a, 0xf2, 0x32, 0x93, 0x3d, 0xda, 0x45, 0xdb, 0xbd, 0x10, 0xd6, 0x30, 0x3d, 0x38, 0x4f, 0xbb, 0xbd, 0x4c, 0xab, 0x82, 0xba, 0xf5, 0x8a, 0xd5, 0x3d, 0xf5, 0x31, 0x91, 0x3d, 0x5e, 0x85, 0x8a, 0x3d, 0xb0, 0xd2, 0xa9, 0xbc, 0x3a, 0x73, 0xff, 0xbb, 0x1d, 0x10, 0x60, 0xbd, 0x74, 0xf5, 0xff, 0xbd, 0x2e, 0x80, 0x9c, 0xbd, 0xd0, 0xfe, 0xf5, 0x3d, 0x02, 0xf4, 0x0b, 0x3e, 0x42, 0x98, 0x14, 0x3e, 0x2a, 0xb6, 0xa2, 0x3d, 0x93, 0xdc, 0x43, 0x3d, 0x5c, 0xd5, 0x18, 0x3e, 0x38, 0xef, 0x10, 0xbd, 0xd4, 0x31, 0x94, 0xbd, 0x5f, 0x46, 0x10, 0x3e, 0x05, 0x52, 0x8a, 0x3d, 0x6f, 0x95, 0xcc, 0x3d, 0x22, 0xa9, 0xf8, 0x3d, 0x9d, 0x9b, 0x33, 0xbc, 0xee, 0x77, 0xf4, 0xbb, 0x00, 0xb1, 0x93, 0x3b, 0x76, 0x9f, 0xeb, 0x3d, 0xa6, 0x13, 0xe7, 0x3c, 0xfc, 0x50, 0x9c, 0x3d, 0x5c, 0x5c, 0x0a, 0xbd, 0xc8, 0xce, 0x37, 0xbd, 0x29, 0x61, 0x90, 0xbb, 0xe3, 0x93, 0x7c, 0x3d, 0xc3, 0x3d, 0x9a, 0x3d, 0x49, 0xb7, 0x0f, 0x3e, 0x1c, 0xff, 0x7d, 0xbd, 0x2a, 0x61, 0xf4, 0xbd, 0xa3, 0x32, 0xee, 0xbd, 0x45, 0xd4, 0x98, 0xbd, 0x32, 0x6e, 0x00, 0x3e, 0x01, 0x8b, 0xac, 0xbc, 0xd7, 0xd8, 0x96, 0x3c, 0xf4, 0x16, 0xa2, 0xbc, 0x6b, 0x7a, 0x05, 0x3d, 0xd4, 0x22, 0x0c, 0x3e, 0x12, 0x29, 0x89, 0x3d, 0x32, 0xc0, 0x0e, 0x3e, 0x0b, 0xfc, 0xab, 0xbd, 0x09, 0x04, 0xc6, 0x3d, 0x51, 0x8f, 0xf2, 0x3c, 0xcd, 0x08, 0x00, 0xbb, 0x43, 0x6b, 0x77, 0xbd, 0x2f, 0x17, 0x34, 0x3d, 0x66, 0x2b, 0x42, 0x3d, 0xf0, 0xc6, 0xf9, 0xbd, 0x20, 0x14, 0xe6, 0x3d, 0x80, 0x25, 0xe0, 0x3d, 0x15, 0xbd, 0xde, 0x3c, 0xd3, 0xfe, 0xf3, 0x3d, 0x0b, 0x44, 0x76, 0x3c, 0xf7, 0xae, 0x2c, 0x3d, 0x67, 0xc0, 0xd8, 0x3c, 0x41, 0x47, 0xd2, 0x3d, 0x3d, 0xf0, 0x99, 0x3d, 0x55, 0xf1, 0x84, 0x3d, 0x8e, 0xdd, 0x7e, 0x3a, 0x0c, 0x4e, 0x81, 0x3c, 0xda, 0x94, 0x9c, 0x3d, 0xa1, 0xe3, 0xf6, 0xbd, 0xbe, 0xef, 0x0e, 0x3e, 0xea, 0x59, 0xe8, 0xbd, 0x4c, 0xf6, 0xab, 0xbd, 0x9f, 0xbc, 0x01, 0xbe, 0xf9, 0xd3, 0x7d, 0x3c, 0xf9, 0x26, 0x89, 0xbd, 0x7c, 0xff, 0x44, 0xbc, 0x4c, 0xe5, 0x12, 0x3e, 0xa8, 0x57, 0x45, 0xbd, 0x8a, 0x2c, 0xec, 0x3d, 0x00, 0x98, 0xef, 0xb5, 0x3d, 0x3c, 0x18, 0xbd, 0x0a, 0x5a, 0xc5, 0x3c, 0x6b, 0x7e, 0x07, 0xbe, 0x48, 0xa6, 0xf2, 0xbd, 0xa8, 0x4f, 0x50, 0xbd, 0x56, 0x63, 0x91, 0x3d, 0x2b, 0x59, 0x26, 0xbd, 0xd7, 0xb5, 0x66, 0x3d, 0xcf, 0xb1, 0x93, 0x3c, 0xa6, 0x90, 0xc7, 0xbd, 0x92, 0xac, 0xe4, 0xbd, 0x6f, 0xe7, 0x07, 0x3b, 0x21, 0x4d, 0x9d, 0x3d, 0x76, 0xc2, 0xf2, 0x3d, 0xc9, 0x53, 0x99, 0xbb, 0xd5, 0x48, 0x82, 0x3b, 0x32, 0x35, 0x45, 0x3d, 0x03, 0x5c, 0xef, 0xbd, 0xb6, 0x96, 0xd9, 0xbd, 0xc2, 0x43, 0xfd, 0xbd, 0xf0, 0xf7, 0x82, 0x3d, 0xf1, 0x15, 0x7d, 0xbd, 0x72, 0x30, 0xe3, 0xbd, 0xc4, 0x06, 0xa7, 0xbd, 0x14, 0xb0, 0x14, 0x3e, 0x77, 0x1f, 0x47, 0x3d, 0x85, 0x8d, 0xf5, 0x3d, 0x08, 0x4c, 0xc3, 0x3c, 0xef, 0xe5, 0xdb, 0xbd, 0x3c, 0x05, 0xc6, 0xbd, 0x4a, 0x75, 0xb6, 0x3d, 0x74, 0x2d, 0xed, 0x3d, 0xf0, 0x0d, 0x0c, 0x3e, 0xf5, 0xe5, 0x45, 0xbc, 0xdf, 0x45, 0xf4, 0x3d, 0x05, 0xc1, 0xd6, 0xbd, 0x15, 0x7f, 0xc9, 0xbd, 0x27, 0x46, 0xcb, 0x3c, 0x6c, 0x2d, 0x37, 0x3d, 0x26, 0x5d, 0x0a, 0x3e, 0x36, 0x25, 0xa2, 0x3d, 0xd8, 0x1c, 0x63, 0xbc, 0xc8, 0x50, 0x82, 0xbd, 0xa3, 0x43, 0x8b, 0xbd, 0x2a, 0x9e, 0xe1, 0xbd, 0x4c, 0xc7, 0xf6, 0xbd, 0x08, 0x2f, 0xd0, 0xbc, 0x3e, 0x1a, 0xe6, 0xbc, 0x2f, 0x92, 0x13, 0x3c, 0x32, 0x29, 0x5c, 0x3d, 0xdd, 0xaa, 0xf6, 0xbc, 0x28, 0x02, 0xbe, 0xbd, 0x30, 0x0a, 0x90, 0xbd, 0x9e, 0x9a, 0x0a, 0x3d, 0xb7, 0xf5, 0x0b, 0x3e, 0x60, 0x31, 0xf4, 0x3d, 0xf2, 0x3c, 0xc2, 0xbd, 0xd4, 0x53, 0x93, 0xbc, 0x50, 0x7b, 0x31, 0xbd, 0x34, 0x5b, 0xf3, 0xbd, 0xd0, 0xec, 0xb3, 0x3d, 0x4d, 0x3c, 0xd4, 0x3d, 0x7b, 0xd1, 0xb2, 0xbd, 0xfd, 0x20, 0xbd, 0x3c, 0x83, 0x8e, 0xde, 0x3c, 0x10, 0x55, 0x4c, 0x3d, 0x98, 0xcb, 0xbd, 0xbc, 0x33, 0xc5, 0x73, 0xbd, 0x20, 0x88, 0xb0, 0xbc, 0x71, 0x66, 0xfd, 0x3c, 0xd1, 0x12, 0xf3, 0x3c, 0xf6, 0x64, 0x7e, 0xbd, 0x12, 0xc8, 0x79, 0x3d, 0x96, 0xf5, 0x2a, 0x3c, 0xd9, 0xee, 0x8f, 0xbc, 0xfc, 0x8a, 0xb5, 0x3d, 0xfb, 0xcf, 0x28, 0x3d, 0xeb, 0xbf, 0x83, 0x3d, 0xe9, 0xc2, 0xe3, 0xbc, 0xa8, 0x51, 0x04, 0x3e, 0xc8, 0x3f, 0xb7, 0x3c, 0xcf, 0xd3, 0x6d, 0x3d, 0x08, 0x01, 0x0d, 0x3e, 0x94, 0xee, 0x26, 0xbd, 0x67, 0xfd, 0x42, 0x3c, 0xee, 0xf5, 0xc0, 0x3c, 0x34, 0xf8, 0x63, 0x3d, 0xbe, 0x73, 0xb5, 0xbd, 0x86, 0x0f, 0x06, 0x3e, 0x71, 0xc5, 0x58, 0x3b, 0x87, 0x8b, 0x1b, 0xbd, 0x84, 0x66, 0xed, 0x3d, 0x75, 0xd9, 0xe9, 0xbc, 0x60, 0xd8, 0x4a, 0xbc, 0x58, 0x28, 0x01, 0x3e, 0x6f, 0xf8, 0x44, 0x3d, 0x60, 0x42, 0xa6, 0x3c, 0xeb, 0x9d, 0xff, 0xbd, 0x78, 0x5d, 0xf3, 0xbd, 0x8d, 0xc4, 0x19, 0x3e, 0x8b, 0x13, 0xe5, 0x3d, 0x3a, 0xc2, 0xcd, 0x3d, 0x79, 0x1b, 0xb5, 0x3d, 0xe7, 0x11, 0xcb, 0x3d, 0x72, 0xdb, 0x83, 0x3d, 0x80, 0xad, 0x93, 0x3d, 0xcc, 0x95, 0xe9, 0x3b, 0xf2, 0xee, 0x51, 0xbd, 0xc5, 0xdf, 0xa2, 0x3d, 0x8e, 0xd2, 0x88, 0x3d, 0xec, 0x99, 0x5e, 0x3c, 0x3a, 0xdc, 0x9a, 0x3d, 0x4c, 0x4b, 0xd0, 0xbd, 0x38, 0x1b, 0xe0, 0xbd, 0x84, 0xe3, 0xdc, 0x3c, 0xaf, 0xd0, 0xa6, 0x3c, 0x1b, 0xfb, 0xed, 0xbd, 0xc2, 0x7b, 0x54, 0xbc, 0x1a, 0x61, 0x05, 0xbe, 0xde, 0x3b, 0x2d, 0xbd, 0xab, 0xd6, 0x19, 0x3e, 0x22, 0x21, 0x88, 0xbd, 0xb7, 0xb7, 0xd9, 0x3d, 0x6b, 0x4b, 0x11, 0x3e, 0x3d, 0xb6, 0x06, 0x3e, 0xc0, 0x6a, 0xfa, 0x3d, 0xa6, 0x41, 0xf5, 0x3d, 0xa1, 0xf6, 0x16, 0x3e, 0xa7, 0xa0, 0x1b, 0x3e, 0x65, 0x1d, 0x1e, 0x3d, 0xd2, 0xa3, 0x09, 0xbe, 0x82, 0x2d, 0x90, 0xbc, 0x28, 0x7e, 0xbd, 0xbc, 0x07, 0x7a, 0x97, 0xbd, 0x63, 0x02, 0xc9, 0xbc, 0x24, 0xeb, 0x1c, 0x3d, 0xe4, 0x08, 0x16, 0x3e, 0x4b, 0xd8, 0x02, 0x3d, 0x46, 0x95, 0xbc, 0x3d, 0x61, 0xc4, 0x99, 0xbd, 0xf9, 0x97, 0xcb, 0xbc, 0xb2, 0xee, 0xcb, 0xbb, 0xb1, 0x36, 0xb9, 0xbd, 0xe4, 0x95, 0xfb, 0x3d, 0xf2, 0x43, 0xf7, 0xbb, 0x78, 0xba, 0xaf, 0x3d, 0x2f, 0x07, 0xaa, 0x3c, 0xd7, 0x59, 0xef, 0xbd, 0xa1, 0x25, 0xc9, 0xbd, 0x8a, 0x2e, 0xcb, 0xbd, 0x74, 0xd0, 0x8f, 0x3d, 0x53, 0x1b, 0x0a, 0x3d, 0x8f, 0x5f, 0x20, 0x3d, 0x5b, 0x93, 0x96, 0xbc, 0xeb, 0x5d, 0xf6, 0x3d, 0x7e, 0x28, 0xec, 0x3d, 0x1d, 0xa2, 0x91, 0x3d, 0x92, 0x4a, 0x43, 0x3d, 0x6e, 0xa5, 0x0c, 0x3d, 0x41, 0x56, 0xe6, 0xbd, 0xbd, 0x93, 0x1a, 0x3d, 0x0b, 0x0a, 0x8e, 0x3d, 0xe1, 0xc6, 0xb1, 0x3d, 0xe5, 0x5a, 0xe5, 0xbc, 0x0a, 0xef, 0xd2, 0xbd, 0x7e, 0x8e, 0x53, 0x3d, 0xea, 0x79, 0xd2, 0x3c, 0x79, 0xa2, 0xf4, 0x3d, 0x5f, 0x21, 0x1c, 0x3d, 0xec, 0xe7, 0x69, 0x3c, 0x83, 0x05, 0x86, 0xbc, 0xa0, 0x67, 0x5d, 0xbd, 0x36, 0xcc, 0x02, 0xbe, 0xa9, 0x66, 0x80, 0xbd, 0xf2, 0x4d, 0xe8, 0x3d, 0xa6, 0x49, 0x26, 0x3d, 0x58, 0xd8, 0xf0, 0x3d, 0xa7, 0xa5, 0x8f, 0xbc, 0x5d, 0xf7, 0xb0, 0xbd, 0x7a, 0xb0, 0xaf, 0xbc, 0xfd, 0x1e, 0xd4, 0x3d, 0xf4, 0xb9, 0xe4, 0xbd, 0x7f, 0x4a, 0x5f, 0x3d, 0x82, 0xed, 0x92, 0xbd, 0x0c, 0x78, 0xd4, 0xbd, 0x1e, 0x11, 0x12, 0xbe, 0x60, 0xb3, 0x06, 0x3e, 0x0d, 0x3b, 0x61, 0xbd, 0xaa, 0xdf, 0xbc, 0x3d, 0xc6, 0x93, 0xe0, 0xbd, 0x2a, 0x29, 0xf9, 0xbd, 0xe2, 0xa1, 0xee, 0x3d, 0x57, 0x7a, 0x58, 0x3d, 0xee, 0xb8, 0x08, 0x3d, 0xd8, 0xab, 0xe0, 0x3d, 0xce, 0xd3, 0x2a, 0x3d, 0xde, 0x6b, 0x7d, 0xbd, 0xfa, 0xc5, 0x13, 0xbc, 0xa6, 0x04, 0xb0, 0x3d, 0xec, 0xc7, 0xd1, 0x3d, 0xc0, 0x76, 0xa5, 0x3d, 0x98, 0xe4, 0xa2, 0x3c, 0x19, 0x09, 0x80, 0xbb, 0x8f, 0x17, 0xb4, 0xbd, 0xa8, 0xf1, 0xa4, 0xbd, 0x5d, 0xae, 0x81, 0x3d, 0x81, 0x62, 0x05, 0x3b, 0xe6, 0x00, 0x0a, 0xbe, 0x7d, 0xce, 0xfd, 0x3d, 0xc0, 0x1a, 0xd6, 0xbd, 0x04, 0x24, 0xea, 0x3c, 0xb6, 0x99, 0x2e, 0x3d, 0x7c, 0x56, 0x82, 0x3d, 0xac, 0xf9, 0x37, 0xbd, 0x72, 0x68, 0x05, 0xbe, 0x95, 0xbd, 0x82, 0xbd, 0x96, 0xa7, 0xa1, 0x3c, 0x5e, 0xa4, 0x11, 0x3c, 0xfa, 0x06, 0xcd, 0xbd, 0xf8, 0xbf, 0x05, 0xbe, 0xd0, 0x7f, 0x27, 0xbc, 0x07, 0x00, 0x45, 0xbd, 0x88, 0x36, 0xdb, 0x3d, 0x6e, 0x2b, 0xd9, 0x3d, 0x87, 0xe3, 0x27, 0xbd, 0x01, 0x2d, 0xff, 0xbd, 0x1d, 0xfe, 0x53, 0xbb, 0x15, 0xf8, 0xee, 0xbd, 0xf2, 0x4e, 0x27, 0xbc, 0x26, 0x9d, 0x66, 0xbd, 0x31, 0xe6, 0x6b, 0x3d, 0xa4, 0x3c, 0x55, 0x3c, 0xcf, 0x57, 0xf1, 0xbd, 0x90, 0xd2, 0x1d, 0x3b, 0xb7, 0xe2, 0x77, 0xbd, 0xb3, 0x62, 0xc5, 0x3c, 0xf7, 0x97, 0x97, 0xbd, 0xb0, 0xa9, 0x8a, 0xbd, 0x05, 0xfc, 0x16, 0xbe, 0x8d, 0xe6, 0x5b, 0xbc, 0x5c, 0x99, 0x5c, 0x3d, 0x62, 0xdb, 0xf5, 0xbd, 0x16, 0x49, 0x74, 0x3c, 0xab, 0x85, 0xdf, 0xbc, 0x46, 0x75, 0xa7, 0xbd, 0xa1, 0x48, 0x1f, 0xbd, 0xae, 0x8f, 0x20, 0x3d, 0x58, 0x4e, 0x18, 0xbd, 0x81, 0xe9, 0x06, 0x3d, 0xde, 0x4f, 0x06, 0x3e, 0x7e, 0x2b, 0x77, 0xbc, 0xbd, 0x02, 0xcf, 0x3d, 0xe1, 0x42, 0x3a, 0xbd, 0x7d, 0xfa, 0xce, 0xbd, 0xdc, 0x95, 0x04, 0xbe, 0x18, 0x5c, 0x1a, 0xbe, 0x03, 0xfc, 0x02, 0x3e, 0xa0, 0x15, 0x17, 0xbe, 0x97, 0x71, 0xde, 0x3c, 0xf7, 0x28, 0x3b, 0x3d, 0x80, 0xa1, 0x9f, 0xbd, 0x5b, 0x46, 0x5f, 0xbd, 0xc0, 0x51, 0x46, 0xbd, 0xc3, 0xa7, 0x03, 0xbe, 0xc5, 0x97, 0x0b, 0xbe, 0x21, 0xcd, 0x66, 0xbd, 0xc4, 0x58, 0xb8, 0x3c, 0xa6, 0xad, 0x9d, 0xbd, 0x47, 0x72, 0xc4, 0xbd, 0xd9, 0x73, 0xf8, 0xbc, 0x2d, 0x1e, 0x76, 0xbd, 0xce, 0x12, 0xbf, 0xbd, 0xfe, 0xd4, 0xb3, 0xbd, 0x4c, 0x63, 0x09, 0xbe, 0x15, 0xb7, 0xbc, 0x3d, 0x28, 0xbe, 0x7f, 0x3d, 0x11, 0xf1, 0xc3, 0x3d, 0x0a, 0x27, 0x88, 0xbc, 0xe2, 0x49, 0xb5, 0x3d, 0xc6, 0x5f, 0xd1, 0x3d, 0xdf, 0x98, 0xd6, 0x3d, 0x8e, 0xd1, 0x46, 0x3d, 0xcd, 0xf4, 0x93, 0x3d, 0xac, 0x7f, 0x60, 0x3c, 0x44, 0x72, 0xdd, 0xbc, 0xc4, 0x61, 0x8d, 0x3d, 0xf3, 0x3d, 0xd1, 0xbc, 0xfc, 0xf4, 0x82, 0xbd, 0xc7, 0x61, 0x21, 0xbd, 0xcc, 0x5d, 0x03, 0x3e, 0xe3, 0x9c, 0xc8, 0x3d, 0x70, 0x0e, 0xb7, 0xbd, 0x8f, 0xad, 0x91, 0xbd, 0x1f, 0x9a, 0xa9, 0x3d, 0x75, 0x1a, 0xc2, 0xbb, 0x3b, 0x98, 0xcd, 0x3c, 0x9d, 0x61, 0xee, 0xbd, 0x04, 0x59, 0xf9, 0xbd, 0xd2, 0x39, 0x14, 0xbe, 0x42, 0xc7, 0xb1, 0xbd, 0x71, 0x39, 0xcf, 0xbc, 0x72, 0xd2, 0xc7, 0x3d, 0x81, 0x73, 0x55, 0xbd, 0xa2, 0x3a, 0x05, 0x3e, 0x47, 0x4a, 0xfd, 0xbd, 0x32, 0x3c, 0x83, 0x3c, 0xe5, 0x24, 0xd9, 0xbd, 0x23, 0x6f, 0xf5, 0x3c, 0x25, 0xc5, 0x6d, 0xbd, 0xbb, 0xf5, 0x94, 0x3d, 0xa9, 0xe7, 0xab, 0x3b, 0x25, 0xd8, 0x86, 0xbc, 0x4b, 0x50, 0x3b, 0x3d, 0xc5, 0x59, 0xf8, 0xbc, 0xc2, 0xf1, 0xfc, 0x3d, 0x98, 0x30, 0xc9, 0xbd, 0x51, 0x0c, 0x9a, 0x3d, 0xaf, 0x8c, 0xf0, 0x3d, 0x8f, 0xb5, 0xba, 0x3d, 0x12, 0x53, 0xf7, 0x3d, 0xc1, 0x44, 0xca, 0xbd, 0x9d, 0x38, 0xf5, 0xbd, 0x4a, 0x3f, 0x4c, 0x3d, 0xdf, 0xd9, 0x73, 0xbd, 0x04, 0xc2, 0xb7, 0xbb, 0x41, 0xd0, 0xad, 0x3d, 0xdb, 0xf4, 0xd7, 0xbd, 0xa2, 0x12, 0x3a, 0x3d, 0xb7, 0x7d, 0xa7, 0xbd, 0xa2, 0xcd, 0x18, 0xbe, 0xd5, 0x96, 0xde, 0xbc, 0xbc, 0x5f, 0x94, 0x3d, 0x9f, 0x56, 0xb8, 0x3c, 0x4c, 0xe8, 0xab, 0xbc, 0x8b, 0x68, 0x31, 0xbd, 0xbd, 0xd0, 0xef, 0xbd, 0x1d, 0xa4, 0xc8, 0xbd, 0xd7, 0x88, 0xa4, 0x3d, 0x79, 0x9a, 0xca, 0x3d, 0x5a, 0xa9, 0xb0, 0x3d, 0x2f, 0x7c, 0x86, 0x3d, 0x0d, 0xf1, 0x07, 0xbd, 0xcc, 0x0c, 0x98, 0xbb, 0x68, 0x83, 0xd0, 0x3c, 0xfa, 0x48, 0x8c, 0xbd, 0xd7, 0x68, 0xc9, 0x3d, 0x2f, 0x4b, 0xa6, 0xbc, 0xfe, 0xb1, 0x01, 0x3e, 0xce, 0x58, 0x14, 0xbe, 0x2d, 0xd8, 0xda, 0x3c, 0xd1, 0x91, 0xd4, 0xbc, 0x6d, 0x18, 0xce, 0xbd, 0x09, 0x3c, 0xfe, 0xbd, 0x7a, 0xcb, 0xff, 0x3d, 0x5e, 0x4f, 0x98, 0xbc, 0x4d, 0x43, 0xff, 0x3d, 0xc7, 0xa3, 0x8d, 0xbd, 0x4f, 0x9b, 0x93, 0xbd, 0xa8, 0x65, 0x96, 0xbd, 0x09, 0x26, 0xad, 0x3d, 0xd4, 0x86, 0xe8, 0xbd, 0x1b, 0x17, 0x02, 0xbe, 0x7a, 0xda, 0xb4, 0x3d, 0xc8, 0x5f, 0xf6, 0x3c, 0x58, 0xe9, 0xb5, 0x3d, 0xd1, 0x0e, 0xc8, 0xbd, 0xe4, 0xa2, 0xe3, 0xbd, 0x9a, 0xdb, 0x05, 0xbe, 0x1a, 0xd8, 0x09, 0xbe, 0x5d, 0xbc, 0xa0, 0xbb, 0x98, 0xe3, 0x8c, 0xbd, 0x8c, 0x7a, 0x23, 0xbd, 0xf7, 0xbf, 0xf7, 0xbd, 0x11, 0xae, 0x01, 0xbd, 0xc0, 0xda, 0xa4, 0x3d, 0xe6, 0x3a, 0xea, 0x3d, 0x39, 0x08, 0x18, 0xbe, 0x4f, 0x14, 0xc7, 0xbc, 0xdb, 0x92, 0x8a, 0xbd, 0x18, 0x16, 0xdf, 0x3b, 0xf1, 0xc4, 0x12, 0xbe, 0xe9, 0xd8, 0x6c, 0x3a, 0xc5, 0x3f, 0x5e, 0xbd, 0x52, 0x30, 0xbf, 0xbd, 0xa7, 0x1f, 0x0b, 0x3d, 0x8b, 0xe5, 0x0d, 0xbe, 0x47, 0x88, 0x06, 0x3e, 0x73, 0xd7, 0xd0, 0x3d, 0x0e, 0x51, 0xb0, 0xbc, 0x8a, 0xae, 0x07, 0xbe, 0x89, 0xcd, 0xff, 0xbc, 0x11, 0x05, 0x17, 0xbd, 0xa7, 0x4e, 0x1f, 0xbc, 0x79, 0xb9, 0xd4, 0x3d, 0xe6, 0x0e, 0xfc, 0xbd, 0x05, 0x2f, 0x18, 0xbe, 0x61, 0x77, 0x07, 0x3e, 0x51, 0x2f, 0xb5, 0xbd, 0x67, 0x8d, 0x75, 0xbd, 0x86, 0xca, 0x64, 0xbd, 0x9d, 0xc4, 0x91, 0x3d, 0xa4, 0x29, 0xb5, 0xbd, 0x76, 0x29, 0x31, 0xbc, 0xdc, 0x5b, 0x7d, 0xbd, 0xdf, 0x86, 0xb3, 0xbd, 0xea, 0xa0, 0x71, 0xbb, 0xb0, 0xdf, 0xea, 0xbd, 0x3d, 0xae, 0xfc, 0x3d, 0x13, 0xbf, 0x6c, 0x3b, 0x81, 0xf9, 0xf2, 0x3c, 0x88, 0xe9, 0xa2, 0x3c, 0x04, 0x6b, 0xd1, 0xbd, 0xb0, 0x01, 0x39, 0x3d, 0x87, 0xef, 0x8d, 0xbd, 0xe5, 0xd6, 0xf6, 0xbc, 0xe7, 0x32, 0xe3, 0x3d, 0x35, 0x22, 0x9b, 0xbd, 0x7c, 0x7b, 0x1c, 0xbe, 0x82, 0xf0, 0xa2, 0x3d, 0x30, 0x72, 0x8f, 0xbd, 0x4d, 0xad, 0xc7, 0xbd, 0xf9, 0x6c, 0xf4, 0xbd, 0xba, 0xe1, 0x00, 0xbd, 0x91, 0x85, 0xac, 0x3d, 0x10, 0xc4, 0x23, 0xbd, 0x6f, 0xa3, 0x09, 0xbe, 0xd3, 0xb7, 0x05, 0x3d, 0x06, 0x9f, 0x95, 0x3d, 0xd0, 0xf6, 0x26, 0xbd, 0x75, 0x9e, 0x0a, 0xbe, 0xc4, 0x1b, 0x02, 0xbe, 0xa1, 0x79, 0xa9, 0xbd, 0x2c, 0xec, 0xc9, 0x3d, 0x46, 0xf9, 0xfc, 0xbc, 0x6e, 0x99, 0xca, 0xbd, 0xaf, 0xdb, 0xba, 0x3d, 0x2a, 0xfe, 0x04, 0x3d, 0xe7, 0xfa, 0x5e, 0x3d, 0x62, 0xcc, 0xaa, 0x3d, 0x08, 0x40, 0x4a, 0x3d, 0x97, 0xbc, 0xe8, 0xbc, 0x84, 0x7f, 0x03, 0xbe, 0x99, 0xca, 0x95, 0xbc, 0xcd, 0x98, 0x16, 0x3e, 0xf5, 0x0c, 0x2d, 0xbc, 0xb6, 0x9e, 0x19, 0xbc, 0xe3, 0xbb, 0xcd, 0xbd, 0xc7, 0x29, 0xad, 0x3d, 0x6e, 0x21, 0x4a, 0x3c, 0x5e, 0xe9, 0xd1, 0x3d, 0xcf, 0xda, 0x6e, 0x3b, 0xfa, 0xbe, 0xec, 0x3c, 0x35, 0x1b, 0x16, 0x3e, 0xcc, 0x6a, 0x1e, 0x3d, 0x81, 0xf6, 0x17, 0x3d, 0x60, 0x62, 0x5f, 0xbb, 0xc7, 0x2d, 0xf9, 0x3d, 0xd3, 0xde, 0xd3, 0x3d, 0x50, 0x32, 0x1e, 0x3d, 0x7d, 0x74, 0x5d, 0xbd, 0x96, 0xd5, 0xd5, 0xbd, 0x3c, 0x57, 0xc1, 0xbd, 0x66, 0xd3, 0xc5, 0x3b, 0x64, 0x8a, 0xac, 0x3c, 0xbc, 0xfa, 0x06, 0xbe, 0xf6, 0x21, 0x0e, 0x3e, 0xa1, 0x1a, 0x99, 0x3d, 0xac, 0x3e, 0xbb, 0x3c, 0xac, 0xd9, 0x11, 0x3e, 0x7f, 0xeb, 0x83, 0xbc, 0xb4, 0x69, 0x08, 0x3d, 0xd1, 0xf6, 0xea, 0x3c, 0x77, 0x3e, 0x1e, 0x3d, 0xad, 0xb7, 0xa3, 0xbc, 0x15, 0x23, 0x5d, 0xbc, 0x98, 0x14, 0x83, 0x3d, 0xf2, 0xbe, 0xd0, 0xbd, 0x91, 0x4a, 0xe6, 0x3d, 0x77, 0x9c, 0xc2, 0xbd, 0x8b, 0x90, 0x85, 0x3d, 0x8f, 0xce, 0x97, 0x3b, 0x0c, 0x9e, 0x94, 0xbc, 0xfe, 0x61, 0x80, 0xbc, 0x92, 0xfc, 0xcf, 0xbc, 0xe3, 0xc3, 0xdb, 0x3d, 0xd8, 0x6a, 0xf7, 0xbd, 0xdf, 0xc0, 0x99, 0xbc, 0xd5, 0xc8, 0x9d, 0x3d, 0x66, 0x66, 0x5f, 0x3c, 0x1c, 0xa1, 0x50, 0xbd, 0x77, 0x4f, 0xc3, 0x3c, 0xe4, 0x32, 0x7a, 0xbd, 0xcb, 0x54, 0x18, 0x3e, 0x6a, 0xb3, 0xee, 0xbd, 0xe4, 0x75, 0xfc, 0xbd, 0x2f, 0x2b, 0x7f, 0x3d, 0x8c, 0x8c, 0xe4, 0xbd, 0x38, 0x02, 0xe2, 0xbd, 0xd1, 0x5e, 0xe5, 0xbd, 0x01, 0xeb, 0xec, 0x3d, 0x27, 0x4a, 0x95, 0xbd, 0x94, 0x3c, 0xf3, 0xbd, 0x0d, 0xb6, 0xde, 0xbd, 0xd4, 0x2c, 0x90, 0x3c, 0xd1, 0xae, 0xb0, 0xbd, 0x6c, 0x63, 0xc3, 0x3d, 0xb6, 0x83, 0xd8, 0x3d, 0x40, 0x30, 0x14, 0x3d, 0xee, 0x59, 0x16, 0x3d, 0x0e, 0x3b, 0xe6, 0x3d, 0xa5, 0x37, 0xc5, 0xbc, 0x62, 0x91, 0x45, 0x3d, 0x0e, 0x2e, 0xda, 0x3d, 0x96, 0xab, 0xbe, 0xbd, 0x56, 0x0e, 0x0e, 0x3e, 0xd1, 0x02, 0xf6, 0xbd, 0x17, 0x5f, 0xd2, 0xbd, 0xdc, 0x04, 0xf4, 0xbd, 0x2e, 0xcb, 0x74, 0x3d, 0x9e, 0xec, 0x85, 0x3d, 0x50, 0x4a, 0xee, 0x3d, 0xb1, 0xbc, 0x57, 0x3d, 0x0c, 0x96, 0xe3, 0x3d, 0x2e, 0x6a, 0xa5, 0x3d, 0xa3, 0x15, 0x1a, 0x3c, 0x13, 0x2a, 0x65, 0xbc, 0xef, 0x6c, 0x3f, 0x3d, 0x71, 0x98, 0xe8, 0x3d, 0x1f, 0x7f, 0xb5, 0x3d, 0xe7, 0x1f, 0xad, 0xbd, 0x68, 0x48, 0xf0, 0xbd, 0x7e, 0xec, 0xd3, 0xbd, 0x7c, 0x00, 0xed, 0x3d, 0xed, 0x96, 0x28, 0xbd, 0x12, 0x70, 0x46, 0x3d, 0x25, 0xc7, 0x77, 0x3d, 0x8d, 0x91, 0x2e, 0xbd, 0x70, 0x9f, 0xdb, 0xbd, 0x0f, 0x0d, 0x80, 0xbb, 0x21, 0x02, 0xfd, 0x3d, 0x07, 0xe5, 0xaa, 0xbd, 0xe2, 0x0f, 0x9b, 0xbc, 0xa8, 0x3a, 0xb7, 0x3d, 0x66, 0xd2, 0x4b, 0xbd, 0xa7, 0xe0, 0xaa, 0x3d, 0x4c, 0x25, 0x12, 0xbd, 0x2a, 0x82, 0x7e, 0xbd, 0x9e, 0x0a, 0x1d, 0x3b, 0x97, 0x78, 0x2c, 0x3d, 0x16, 0x74, 0xed, 0x3d, 0x61, 0xe3, 0x03, 0xbe, 0x01, 0x2d, 0x8e, 0xbd, 0x8a, 0x93, 0xe0, 0xbd, 0x3d, 0x02, 0xe0, 0xbc, 0x65, 0xc3, 0x93, 0xbc, 0x79, 0xcd, 0xcc, 0x3b, 0x07, 0xac, 0x71, 0x3d, 0x8c, 0xde, 0xb2, 0xbd, 0x8e, 0x1a, 0xb0, 0xbd, 0x08, 0xf5, 0xac, 0x3d, 0x27, 0x69, 0x14, 0x3d, 0x83, 0x19, 0xea, 0x3c, 0x20, 0x25, 0x57, 0xbc, 0x80, 0xfc, 0x99, 0xbd, 0xdb, 0xbc, 0x21, 0xbd, 0x7e, 0x46, 0x12, 0xbe, 0xf0, 0x07, 0x78, 0xbd, 0xb2, 0x69, 0xd7, 0xbd, 0x39, 0xa5, 0xa9, 0x3d, 0x4c, 0x95, 0xc8, 0x3c, 0x95, 0x36, 0x04, 0xbe, 0x8f, 0xb1, 0x3e, 0xbd, 0x42, 0x1b, 0x00, 0x3d, 0xdd, 0x41, 0x1c, 0x3d, 0x41, 0xee, 0x86, 0xbd, 0x75, 0x0c, 0x12, 0x3e, 0x80, 0x1d, 0xa4, 0x3d, 0xbb, 0x50, 0x60, 0x3d, 0xa8, 0x19, 0xeb, 0x3d, 0xff, 0x3c, 0x27, 0x3d, 0x7f, 0xb4, 0x1b, 0x3e, 0xc2, 0x8f, 0x1b, 0x3d, 0x16, 0x0d, 0xca, 0xbc, 0xc4, 0xe9, 0xf3, 0x3d, 0x92, 0x60, 0xe8, 0x3d, 0xf8, 0xf2, 0x96, 0xbd, 0x11, 0xea, 0xb0, 0x3d, 0x50, 0x1c, 0x6a, 0xbd, 0xf3, 0xac, 0xf6, 0xbc, 0x43, 0x69, 0x1e, 0xbd, 0x52, 0xa6, 0xd3, 0xbd, 0xe8, 0x15, 0xd3, 0xbc, 0x84, 0xc9, 0xfd, 0xbd, 0x24, 0x68, 0x0f, 0xbe, 0x7a, 0x61, 0x31, 0x3d, 0xb5, 0x53, 0xe1, 0xbd, 0x51, 0x16, 0x88, 0x3a, 0x5f, 0xd0, 0x0d, 0x3d, 0x80, 0x71, 0x39, 0x39, 0x61, 0xc4, 0x68, 0x3d, 0x9b, 0x4d, 0xc5, 0x3d, 0x8c, 0xe3, 0xce, 0x3d, 0x9e, 0x8b, 0xa4, 0xbc, 0x06, 0x20, 0x2f, 0xbd, 0xbd, 0x1e, 0x0e, 0x3e, 0x4f, 0xf6, 0x46, 0x3d, 0x5a, 0xc3, 0xb1, 0xbd, 0x8c, 0x51, 0xe1, 0xbd, 0xf3, 0xf0, 0x10, 0x3e, 0xf2, 0xbc, 0x80, 0xbd, 0x92, 0x13, 0x6e, 0xbd, 0x07, 0xa8, 0x90, 0xbd, 0x42, 0x6c, 0x58, 0x3d, 0x6c, 0x60, 0xbe, 0x3d, 0x2a, 0xe3, 0x98, 0xbb, 0x77, 0x67, 0xb0, 0x3d, 0x04, 0xdc, 0x0b, 0x3e, 0xdc, 0xc8, 0xd0, 0xbd, 0x97, 0x39, 0x81, 0xbd, 0x60, 0xe6, 0x15, 0xbc, 0x3d, 0x4a, 0xd3, 0xbc, 0xcd, 0xb3, 0xbf, 0x3d, 0x3c, 0x0a, 0xf1, 0xbd, 0x1b, 0x4d, 0x92, 0x3d, 0x95, 0xc0, 0xfb, 0x3c, 0xec, 0x61, 0xb9, 0x3c, 0x54, 0x3a, 0xf3, 0xbd, 0x6e, 0xa8, 0xfe, 0x3d, 0x1e, 0x7e, 0xcf, 0x3c, 0x8d, 0xae, 0xb1, 0x3d, 0x04, 0x64, 0x4e, 0xbd, 0xc4, 0x2f, 0xfe, 0xbb, 0xa3, 0x36, 0x93, 0xbc, 0x8a, 0x1f, 0xa4, 0x3b, 0x7a, 0x02, 0x15, 0x3c, 0x93, 0x5b, 0x78, 0x3d, 0xeb, 0xb6, 0x91, 0x3d, 0xec, 0xf8, 0xe8, 0xbd, 0x66, 0xcb, 0x31, 0xbd, 0xa2, 0x92, 0xf5, 0x3d, 0xeb, 0x34, 0xc8, 0xbd, 0xcd, 0xbf, 0x1a, 0x3b, 0x66, 0xa7, 0x15, 0x3e, 0x4e, 0xe7, 0x50, 0xbd, 0x10, 0x25, 0x2c, 0x3d, 0x1c, 0x53, 0xe6, 0x3d, 0x41, 0x93, 0x0f, 0x3e, 0x19, 0x03, 0x27, 0x3d, 0x2b, 0x3b, 0xbf, 0x3d, 0xa1, 0x66, 0xff, 0x3c, 0xfc, 0xdc, 0x8b, 0xbc, 0x37, 0x63, 0x4a, 0xbd, 0x81, 0xd7, 0xc4, 0xbd, 0xec, 0x36, 0xbe, 0x3c, 0x30, 0x21, 0x79, 0xbc, 0xdc, 0xe1, 0x54, 0x3d, 0xf6, 0xb3, 0x66, 0x3d, 0xa7, 0xb7, 0x81, 0xbc, 0x9b, 0x80, 0x3b, 0x3d, 0xce, 0x64, 0x95, 0xbd, 0xb7, 0xa8, 0xad, 0xbd, 0xef, 0x33, 0xe8, 0x3d, 0x4f, 0x96, 0x6a, 0xbd, 0x06, 0x63, 0xac, 0xbd, 0xae, 0x8d, 0x0f, 0x3e, 0x74, 0x6e, 0xe6, 0x3d, 0xb5, 0x74, 0x00, 0x3e, 0x9d, 0x42, 0x19, 0x3d, 0xac, 0xa9, 0xce, 0xbd, 0x5f, 0x02, 0xdd, 0x3d, 0x48, 0x08, 0x5a, 0xbc, 0x3d, 0xcc, 0xb8, 0xbd, 0xa4, 0x2b, 0xd7, 0x3c, 0x7a, 0x34, 0xb2, 0xbd, 0xba, 0x08, 0x92, 0x3c, 0x28, 0x6a, 0x5a, 0x3b, 0x45, 0x70, 0xa9, 0xbc, 0xbc, 0xd8, 0x84, 0xbd, 0x78, 0xa9, 0x05, 0xbe, 0x92, 0xcb, 0x32, 0x3d, 0x49, 0xea, 0xbd, 0xbd, 0x74, 0xd5, 0x56, 0x3d, 0x17, 0x68, 0x80, 0x3c, 0x78, 0x58, 0xe6, 0xbd, 0x38, 0x01, 0x09, 0x3e, 0xb3, 0x27, 0xf9, 0x3d, 0x25, 0x70, 0x8f, 0xbc, 0x07, 0x19, 0xee, 0xbc, 0xa8, 0xbb, 0xe7, 0x3c, 0xe9, 0x3d, 0x98, 0xbd, 0xb7, 0xe3, 0xe2, 0xbd, 0xe5, 0xa4, 0x79, 0x3d, 0x9c, 0xb3, 0x7f, 0x3d, 0xec, 0xa8, 0x03, 0x3e, 0x1a, 0x49, 0x09, 0x3e, 0xe8, 0x39, 0xb2, 0xbd, 0x39, 0x60, 0xda, 0x3d, 0x21, 0x66, 0x8f, 0x3d, 0x58, 0x85, 0x03, 0xbd, 0x15, 0x54, 0x42, 0x3d, 0xf5, 0x9b, 0x41, 0xbd, 0x26, 0x43, 0xbb, 0xbd, 0xbb, 0x7d, 0x77, 0x3c, 0x0e, 0x11, 0xfc, 0xbd, 0xb9, 0x68, 0xe5, 0xbd, 0x87, 0xa6, 0xea, 0xbd, 0xee, 0x5a, 0xec, 0xbd, 0x61, 0x9f, 0xae, 0xbd, 0x3e, 0x54, 0x72, 0xbd, 0x28, 0x87, 0xbb, 0x3d, 0xc0, 0x3e, 0x4f, 0x3d, 0xd8, 0x8d, 0x0e, 0x3e, 0x54, 0x6e, 0x02, 0xbd, 0x05, 0x7c, 0xc3, 0xbd, 0xc4, 0xba, 0x87, 0x3d, 0xef, 0xf1, 0xed, 0x3d, 0xc0, 0x74, 0xc5, 0x3d, 0x15, 0x40, 0x89, 0x3c, 0x7b, 0x28, 0xf6, 0x3d, 0xf5, 0x5b, 0x08, 0x3e, 0x2c, 0xea, 0x8c, 0x3d, 0x88, 0x24, 0x4c, 0xbc, 0x55, 0xcf, 0x45, 0x3d, 0xe7, 0x2b, 0x11, 0xbe, 0x48, 0xbb, 0xfa, 0xbc, 0xf8, 0x14, 0x98, 0x3d, 0xdf, 0xab, 0x3f, 0x3d, 0xff, 0xd9, 0x4b, 0x3d, 0xfd, 0x2e, 0xbb, 0x3c, 0x0c, 0x86, 0x71, 0x3d, 0x36, 0x0b, 0x91, 0xbd, 0x57, 0xc7, 0x18, 0xbe, 0x99, 0x26, 0x7c, 0x3d, 0xb7, 0x54, 0xe3, 0xbd, 0xa0, 0x8e, 0x49, 0xbc, 0xde, 0x0e, 0x8d, 0x3d, 0xb6, 0x82, 0x9a, 0x3c, 0xb7, 0xe2, 0xda, 0x3d, 0x5f, 0x70, 0xed, 0xbd, 0x29, 0x21, 0x32, 0x3c, 0xf9, 0x00, 0xc0, 0x3c, 0x50, 0x50, 0xe2, 0xbd, 0x1a, 0x1a, 0x20, 0xbd, 0x69, 0x60, 0xae, 0xbd, 0xa2, 0xf6, 0xfd, 0xbd, 0xca, 0x0e, 0x48, 0x3d, 0xc4, 0x70, 0x51, 0xbd, 0x74, 0x21, 0xa7, 0x3c, 0xdb, 0x1c, 0xa0, 0x3d, 0xb2, 0x12, 0xba, 0xbd, 0xe9, 0xbf, 0xe2, 0x3d, 0x9d, 0xe7, 0x8c, 0x3b, 0xb6, 0xf1, 0xaa, 0xbd, 0x39, 0x53, 0x4b, 0xbd, 0x87, 0x0d, 0xf0, 0x3d, 0x3b, 0xb4, 0xf4, 0xbd, 0x6d, 0xe1, 0x2d, 0xbc, 0xbd, 0x3b, 0x9b, 0x3d, 0x74, 0xd8, 0xf4, 0xbc, 0xf1, 0xb3, 0xe0, 0x3d, 0xad, 0x7a, 0x08, 0x3d, 0x69, 0x1c, 0x38, 0xbd, 0xdd, 0xed, 0xa3, 0xbd, 0x3b, 0x03, 0x0e, 0xbe, 0x3a, 0x4b, 0xa7, 0xbd, 0xe7, 0x61, 0x86, 0xbd, 0xc3, 0x00, 0xd9, 0xbd, 0x62, 0xa0, 0x79, 0x3d, 0x30, 0x38, 0x86, 0xbc, 0x14, 0x00, 0xbb, 0x3d, 0xef, 0xc3, 0x76, 0xbd, 0x9e, 0xeb, 0x08, 0xbe, 0xa2, 0xf5, 0x94, 0x3d, 0x92, 0xfe, 0xd0, 0xbd, 0x76, 0xe9, 0x83, 0x3d, 0xc7, 0xfd, 0x0c, 0xbd, 0x18, 0xcf, 0x2c, 0xbb, 0x07, 0x97, 0x46, 0xbd, 0x89, 0xc6, 0x64, 0x3d, 0x42, 0xce, 0xf0, 0xbd, 0x19, 0xb3, 0xf7, 0x3d, 0x69, 0x54, 0x0a, 0xbd, 0xba, 0xe6, 0xad, 0x3d, 0x6e, 0xa1, 0x32, 0xbd, 0x5e, 0xac, 0x7a, 0x3c, 0x26, 0x62, 0x86, 0xbc, 0x71, 0xc2, 0xe0, 0x3d, 0x5e, 0x12, 0x8a, 0xbd, 0xaf, 0x92, 0x19, 0xbe, 0x59, 0x0f, 0x08, 0xbd, 0x16, 0x7a, 0xa1, 0xbd, 0x86, 0xf3, 0x0d, 0xbe, 0xb9, 0xe6, 0x61, 0x3d, 0x36, 0x0b, 0xf7, 0x3c, 0x56, 0x6c, 0x10, 0xbe, 0x95, 0x3f, 0xd3, 0x3d, 0x3a, 0x79, 0xe8, 0x3c, 0x91, 0xb6, 0xee, 0xbd, 0x36, 0xc4, 0x09, 0xbd, 0x0a, 0xed, 0x89, 0xbd, 0xb2, 0x88, 0x24, 0x3d, 0xb7, 0x68, 0x6b, 0x3d, 0x59, 0xe2, 0x3d, 0x3c, 0x9a, 0x99, 0x09, 0xbe, 0x03, 0xee, 0x2a, 0x3d, 0x40, 0xb5, 0xc4, 0x3d, 0x3c, 0x01, 0x2d, 0x3d, 0xd5, 0x63, 0x13, 0xbd, 0x86, 0x68, 0xef, 0x3d, 0xae, 0xe9, 0x2b, 0x3d, 0x7a, 0x45, 0x5c, 0xbd, 0xaa, 0x68, 0x47, 0xbd, 0x68, 0xb3, 0x05, 0x3c, 0x6e, 0xe0, 0xda, 0xba, 0xfd, 0x3d, 0xbe, 0x3d, 0x80, 0xd7, 0xdb, 0xbd, 0xc1, 0xf8, 0xbb, 0xbc, 0xf9, 0xd0, 0x1b, 0xbe, 0xff, 0x51, 0xbb, 0x3d, 0x61, 0xe8, 0x59, 0xbd, 0xc2, 0xe6, 0x44, 0xbb, 0x18, 0x48, 0x90, 0x3d, 0x46, 0xfe, 0xc4, 0x3d, 0x00, 0x44, 0xcf, 0xbd, 0x9f, 0x55, 0x91, 0xbd, 0xfe, 0x08, 0x77, 0xbd, 0x6b, 0x4f, 0x85, 0xbd, 0xa9, 0x42, 0x9e, 0xbd, 0xf4, 0xd9, 0x82, 0x3d, 0xe7, 0x3b, 0x9d, 0xbc, 0xa0, 0x54, 0xda, 0x3d, 0xfa, 0xed, 0x36, 0x3d, 0x40, 0x13, 0x98, 0xbd, 0x07, 0x34, 0x8e, 0x3d, 0xa6, 0x9a, 0x98, 0x3c, 0xd5, 0xbf, 0x69, 0xbd, 0x4b, 0x30, 0x61, 0xbc, 0xd2, 0xdf, 0x1a, 0xbe, 0x5b, 0x8d, 0xb4, 0xbd, 0x9c, 0x05, 0x36, 0x3d, 0x37, 0x65, 0x9b, 0xbd, 0x49, 0xbe, 0xf8, 0xbd, 0x7b, 0x8b, 0xcc, 0x3c, 0x42, 0x2d, 0x12, 0xbe, 0xe2, 0x36, 0x0d, 0xbe, 0x57, 0x5e, 0x99, 0x3d, 0x3b, 0x17, 0x8a, 0x3d, 0x09, 0x12, 0xfc, 0xbc, 0xa0, 0xd7, 0x96, 0x3b, 0x8f, 0x3a, 0x13, 0xbe, 0x28, 0x6d, 0x8a, 0x3d, 0x82, 0x4c, 0xfb, 0x3c, 0x7a, 0xdf, 0xf0, 0xbc, 0xc5, 0x11, 0xc0, 0xbd, 0xb0, 0x9e, 0xa9, 0x3d, 0x31, 0xb3, 0xd0, 0xbc, 0x70, 0xde, 0x1c, 0x3d, 0x64, 0xc6, 0xe1, 0x3d, 0xe4, 0x89, 0xb6, 0x3d, 0x56, 0x0f, 0x58, 0xbd, 0x0e, 0xf1, 0xed, 0x3d, 0xb2, 0xff, 0x81, 0xbd, 0x88, 0x18, 0x90, 0xbd, 0xd3, 0xfc, 0x0a, 0x3d, 0xdc, 0xba, 0xcc, 0x3d, 0x41, 0x42, 0xc2, 0xbd, 0x6d, 0xda, 0x3d, 0x3d, 0x2c, 0x3d, 0xcd, 0xbd, 0xc6, 0x36, 0xed, 0x3d, 0xf7, 0xf3, 0x92, 0x3d, 0xcc, 0x88, 0x8b, 0xbc, 0x0f, 0x13, 0x57, 0xbd, 0x95, 0xaf, 0x93, 0xbd, 0xf3, 0xa5, 0xb2, 0xbd, 0x3a, 0x30, 0xd5, 0x3d, 0x2d, 0x05, 0x19, 0xbe, 0x12, 0xea, 0x91, 0x3d, 0x8c, 0x30, 0x81, 0xbc, 0xd6, 0x15, 0xab, 0xbd, 0xaa, 0xb2, 0xc9, 0xbd, 0x8e, 0x75, 0x6e, 0x3d, 0x42, 0x1c, 0xe5, 0xbd, 0x02, 0xe7, 0x91, 0xbd, 0xce, 0x2b, 0x07, 0x3e, 0xbc, 0x5a, 0x14, 0xbe, 0x2b, 0x70, 0xc3, 0x3d, 0x98, 0x54, 0x15, 0xbe, 0x46, 0x9b, 0x4a, 0xbc, 0x32, 0x5c, 0xe9, 0x3d, 0x3d, 0x89, 0x8e, 0x3d, 0xec, 0x5a, 0xea, 0x3d, 0x1e, 0x56, 0xc5, 0xbd, 0xd4, 0xa6, 0x79, 0x3d, 0xe0, 0x32, 0x75, 0x3d, 0x90, 0x8a, 0xbd, 0xbd, 0x72, 0xf7, 0x85, 0x3d, 0xea, 0x3f, 0xc2, 0x3d, 0xe4, 0x32, 0x04, 0x3e, 0xcf, 0x5b, 0x02, 0xbd, 0x07, 0x89, 0x5c, 0xbd, 0x3d, 0x3a, 0xc6, 0xbb, 0x8d, 0x9b, 0xc8, 0xbd, 0x0e, 0x15, 0x3b, 0xbd, 0x0c, 0xcd, 0x7b, 0xbc, 0xbd, 0xdd, 0xeb, 0x3c, 0xdf, 0x9d, 0xc8, 0xbd, 0xe4, 0xf4, 0xf1, 0x3c, 0x05, 0xa3, 0x3a, 0x3d, 0xc0, 0xb2, 0x37, 0xbd, 0xd7, 0xfd, 0x30, 0xbd, 0x1c, 0xdc, 0x8d, 0x3d, 0x8c, 0x33, 0xf4, 0xbd, 0x59, 0x83, 0xad, 0x3d, 0xba, 0x66, 0xf4, 0xbc, 0xf5, 0xb2, 0x8d, 0x3c, 0xe7, 0x36, 0x5a, 0xbd, 0x21, 0x44, 0x6d, 0xbd, 0xd7, 0xc9, 0x03, 0x3e, 0xe1, 0x7b, 0xf9, 0x3c, 0xcb, 0x64, 0xb2, 0xbc, 0x89, 0x7a, 0xa3, 0x3d, 0x80, 0x94, 0x9b, 0xbc, 0xfa, 0x29, 0x07, 0xbe, 0x67, 0x0f, 0xa8, 0xbd, 0xb7, 0x47, 0xeb, 0x3d, 0xee, 0x92, 0x89, 0xbd, 0x09, 0xdc, 0x57, 0x3d, 0x40, 0x9c, 0x86, 0xbd, 0x02, 0x08, 0x52, 0x3c, 0xc1, 0xdb, 0xfa, 0xbd, 0xc3, 0xa5, 0x7c, 0x3d, 0xdb, 0x18, 0x90, 0xbd, 0xb1, 0x19, 0x03, 0xbe, 0xa8, 0xb9, 0x92, 0x3d, 0x9f, 0xb7, 0x0e, 0xbd, 0xb5, 0x6a, 0x56, 0xbd, 0x1d, 0x08, 0x4f, 0x3d, 0xeb, 0xd8, 0xe9, 0x3d, 0xfb, 0xe0, 0xb9, 0xbd, 0x37, 0x77, 0x3f, 0xbd, 0x59, 0xe2, 0xae, 0x3d, 0xcf, 0x75, 0xec, 0x3d, 0xba, 0x2d, 0x75, 0x3d, 0x56, 0xa1, 0x6a, 0xbc, 0x08, 0x54, 0x9e, 0xbd, 0x2f, 0x29, 0x97, 0x3c, 0x89, 0x6e, 0xf8, 0x3c, 0x0d, 0x2a, 0xef, 0x3d, 0x2f, 0x24, 0x9a, 0x3d, 0x1f, 0xb3, 0x76, 0xba, 0x22, 0x3a, 0x16, 0xbc, 0xa2, 0xe1, 0xb0, 0x3d, 0x63, 0xbd, 0x80, 0xbd, 0x15, 0xee, 0xb3, 0xbd, 0x31, 0x05, 0x41, 0x3d, 0xf7, 0x98, 0x19, 0x3d, 0x14, 0x81, 0x94, 0xbd, 0x00, 0x72, 0x94, 0xbd, 0x58, 0xeb, 0xc4, 0xbc, 0x5f, 0x93, 0xa0, 0x3d, 0x4b, 0x93, 0xb2, 0x3d, 0xd2, 0x31, 0x6a, 0x3c, 0xa9, 0x92, 0x1d, 0x3b, 0x30, 0xf1, 0x86, 0x3d, 0x72, 0x6b, 0x05, 0x3e, 0x71, 0xcc, 0x77, 0x3d, 0x25, 0xdd, 0xa9, 0x3d, 0x41, 0x40, 0x5c, 0x3d, 0xc8, 0x18, 0x92, 0x3d, 0x3b, 0xc5, 0x81, 0x3d, 0x31, 0x77, 0x6d, 0xbb, 0x9b, 0xee, 0x91, 0xbb, 0x49, 0x18, 0x03, 0x3d, 0x03, 0x56, 0xdf, 0x3c, 0x04, 0xc2, 0x15, 0xbe, 0x6b, 0xc8, 0x93, 0x3c, 0x4c, 0x69, 0xa3, 0x3d, 0xcf, 0xd2, 0xd9, 0x3d, 0x7c, 0xae, 0x26, 0xbd, 0x7b, 0xcb, 0x10, 0xbe, 0x50, 0xc0, 0x0a, 0x3d, 0xe9, 0xb9, 0x35, 0x3d, 0x14, 0x3b, 0x37, 0xbd, 0x8f, 0x5a, 0xa7, 0xbd, 0x04, 0x27, 0x70, 0xbc, 0xdd, 0x4e, 0xc7, 0x3d, 0xa1, 0xf8, 0x44, 0xbc, 0xb6, 0x27, 0x52, 0xbd, 0xd6, 0x7d, 0x2f, 0xbd, 0x71, 0x84, 0xd4, 0xbd, 0x6e, 0x5d, 0x7e, 0xbd, 0x6c, 0x52, 0xd5, 0x3d, 0x2a, 0xf2, 0x3f, 0x3c, 0xf0, 0x53, 0xe9, 0x3d, 0x6e, 0x1f, 0xd7, 0x3d, 0x86, 0xd8, 0xf1, 0xbc, 0xc1, 0x71, 0x89, 0xbd, 0x64, 0x0f, 0x06, 0xbd, 0x79, 0x29, 0x5f, 0x3d, 0xe4, 0x9e, 0xa2, 0x3d, 0xab, 0x42, 0xd8, 0xbd, 0xfb, 0x6a, 0xbf, 0x3c, 0x77, 0x82, 0xc0, 0x3d, 0xb9, 0xd0, 0xc6, 0xbd, 0x68, 0xf8, 0xfe, 0xbd, 0xbe, 0x98, 0xeb, 0x3d, 0xc7, 0x68, 0xaf, 0x3d, 0xd0, 0xd4, 0xe3, 0xbd, 0xfd, 0xed, 0x75, 0x3d, 0x3e, 0x2c, 0xc7, 0x3d, 0x45, 0x74, 0x94, 0xbd, 0xb3, 0x45, 0x0c, 0xbe, 0x87, 0xbe, 0xb4, 0x3d, 0xa3, 0x0c, 0xee, 0xbd, 0x52, 0x89, 0xdc, 0x3d, 0x75, 0x83, 0xbc, 0x3d, 0x49, 0xc7, 0xeb, 0x3d, 0x5b, 0x2d, 0x06, 0x3e, 0x60, 0x63, 0xb1, 0x3d, 0x54, 0x81, 0xbd, 0x3d, 0x1f, 0x2e, 0x1d, 0x3d, 0x5a, 0x4b, 0x19, 0xbe, 0x1e, 0xf4, 0xe7, 0xbd, 0x23, 0xdc, 0x45, 0x3d, 0xe8, 0x82, 0x81, 0xbc, 0x75, 0x4f, 0xc3, 0xbd, 0xec, 0x69, 0x4c, 0xbd, 0xc8, 0xda, 0x79, 0xbd, 0x94, 0x27, 0xd0, 0x3d, 0x35, 0xd9, 0x90, 0x3d, 0x2f, 0x56, 0xf3, 0x3d, 0xe7, 0x17, 0xf7, 0x3b, 0xd5, 0x4c, 0xe5, 0x3c, 0xa6, 0x84, 0xab, 0xbd, 0x10, 0xca, 0x00, 0xbd, 0x53, 0xab, 0x13, 0xbd, 0x87, 0x05, 0xf6, 0x3b, 0x00, 0x3a, 0xaf, 0xbd, 0x93, 0x1a, 0xbb, 0xbc, 0x51, 0x76, 0xe5, 0xbd, 0xdc, 0x99, 0x9a, 0xbd, 0x3b, 0xb5, 0x07, 0xbd, 0xfa, 0x73, 0x52, 0x3c, 0x62, 0x72, 0x49, 0x3b, 0x4f, 0xdd, 0x08, 0xbe, 0xcc, 0xb9, 0xbb, 0x3d, 0x3d, 0x91, 0xd2, 0xbc, 0x99, 0x26, 0xf1, 0xbd, 0xf8, 0x80, 0xe6, 0x3b, 0xeb, 0x22, 0x13, 0xbe, 0x01, 0xe0, 0x6f, 0x3d, 0x76, 0xb7, 0x3d, 0xbd, 0xf3, 0xd7, 0xc2, 0x3d, 0x91, 0x4c, 0x7a, 0x3d, 0xc3, 0x44, 0x81, 0xbd, 0x32, 0xb2, 0x5d, 0x3d, 0x91, 0x6f, 0x1a, 0xbe, 0xa0, 0xd6, 0x54, 0x3d, 0x16, 0x93, 0xa5, 0xbc, 0x68, 0x5e, 0x05, 0xbe, 0x0f, 0x33, 0x3c, 0xbd, 0x9f, 0xa0, 0xb6, 0xbd, 0x14, 0xdb, 0x56, 0xbb, 0x83, 0x9b, 0x1a, 0xbe, 0x19, 0xe1, 0x05, 0xbd, 0x36, 0x48, 0x17, 0x3d, 0x78, 0xc4, 0xd7, 0xbd, 0xa8, 0xb3, 0x8b, 0xbd, 0x8a, 0xa5, 0xca, 0xbd, 0x2b, 0x51, 0x1c, 0xbe, 0x41, 0xa9, 0x8d, 0x3d, 0x35, 0xb2, 0x4c, 0x3d, 0x8c, 0xa9, 0x80, 0xbd, 0x0f, 0x0b, 0xf5, 0x3c, 0x87, 0xe6, 0xf5, 0xbd, 0x3b, 0x3b, 0x21, 0xbd, 0xc0, 0x56, 0xe5, 0x3d, 0x12, 0x6b, 0xbd, 0xbd, 0x2c, 0xbe, 0xdb, 0xbd, 0x14, 0x18, 0xd1, 0xbd, 0x02, 0x77, 0xf4, 0xbc, 0x06, 0xca, 0x11, 0xbd, 0xa8, 0xe5, 0xde, 0xbd, 0x50, 0x73, 0x9c, 0xbc, 0xcf, 0x1d, 0x5c, 0x3d, 0x67, 0xb8, 0xe2, 0x3d, 0xdc, 0x57, 0xf2, 0xbc, 0xdb, 0x31, 0xe0, 0x3d, 0x87, 0x2e, 0x02, 0xbe, 0x25, 0x24, 0xe2, 0xbd, 0x22, 0x4f, 0x85, 0xbc, 0x75, 0x9e, 0x02, 0xbd, 0x59, 0x4f, 0xee, 0xbd, 0xd2, 0x64, 0x0c, 0xbe, 0xdd, 0x89, 0x80, 0xbc, 0x54, 0x6e, 0x9b, 0x3d, 0x1b, 0x6f, 0x5c, 0xbd, 0x55, 0x9e, 0x87, 0xbd, 0x6e, 0x4a, 0x03, 0xbe, 0x4c, 0x4b, 0x3e, 0x3d, 0x39, 0xa4, 0xc8, 0x3d, 0x24, 0xc4, 0x1b, 0xbd, 0xfb, 0x13, 0x80, 0xbc, 0xe7, 0xdd, 0x01, 0xbb, 0x33, 0x97, 0x7c, 0xbd, 0x74, 0x94, 0xd0, 0xbb, 0x6b, 0xc7, 0xf7, 0x3d, 0xc4, 0x90, 0xf3, 0xbd, 0x63, 0xa8, 0x79, 0x3d, 0xee, 0xe4, 0x03, 0xbe, 0x50, 0x18, 0x9e, 0x3d, 0x70, 0xf4, 0xca, 0x3d, 0x4e, 0xac, 0xe2, 0xbd, 0x2d, 0x14, 0x93, 0x3d, 0xe0, 0x5d, 0x16, 0x3c, 0xc1, 0x23, 0xef, 0x3d, 0x80, 0x6f, 0xc9, 0xbd, 0xbb, 0x79, 0x7b, 0xbd, 0xb1, 0x69, 0xfc, 0x3d, 0x8c, 0xf4, 0xd9, 0x3d, 0x2a, 0xfb, 0xb9, 0x3d, 0xee, 0x88, 0x01, 0x3e, 0x7a, 0x8d, 0x1c, 0xbe, 0x2f, 0x41, 0xf9, 0xbd, 0xf2, 0x18, 0xfc, 0x3d, 0x33, 0xd3, 0x6a, 0x3d, 0x66, 0xd6, 0x5e, 0xbd, 0xa2, 0xfb, 0xc2, 0x3d, 0x9d, 0x72, 0x25, 0x3d, 0xb1, 0xa4, 0x19, 0xbe, 0xea, 0xc8, 0x1b, 0xbd, 0x8b, 0xcd, 0x18, 0xbe, 0x2f, 0x85, 0xa6, 0xbd, 0x84, 0x60, 0x06, 0xbe, 0xd4, 0x8a, 0xec, 0xbc, 0x60, 0xd9, 0xa0, 0xbd, 0x75, 0x12, 0xc1, 0x3c, 0x6e, 0xe2, 0xa0, 0xbd, 0x36, 0x97, 0xdf, 0xbd, 0xf4, 0x47, 0xb2, 0x3d, 0xfa, 0x55, 0xcc, 0xbd, 0xb6, 0xb7, 0x2b, 0xba, 0xe5, 0xfc, 0x57, 0xbb, 0xe3, 0x87, 0xf3, 0xbd, 0xd9, 0x11, 0xa1, 0xbc, 0x0a, 0xf5, 0xd6, 0x3d, 0x74, 0x7b, 0x42, 0x3d, 0x29, 0x87, 0x32, 0xbd, 0x36, 0x55, 0x0f, 0xbb, 0x73, 0x5d, 0xfd, 0xbd, 0x78, 0x42, 0x16, 0xbe, 0x35, 0x51, 0x00, 0xbe, 0xa5, 0xca, 0xb9, 0x3d, 0x23, 0xf3, 0xe3, 0xbd, 0x4f, 0x62, 0x17, 0xbe, 0x9d, 0xe8, 0xc3, 0xbb, 0x63, 0xbd, 0xf8, 0xbd, 0xae, 0x61, 0x8f, 0xbd, 0xf7, 0xdf, 0xc6, 0x3d, 0xd9, 0x9c, 0x53, 0x3b, 0xea, 0x11, 0xd7, 0x3c, 0x7f, 0x16, 0x9f, 0x3c, 0x3b, 0x76, 0x97, 0x3d, 0xcc, 0x04, 0x11, 0xbd, 0xd5, 0x67, 0xb7, 0x3d, 0xf7, 0x3e, 0xcf, 0xbc, 0x71, 0xae, 0x18, 0xbe, 0x7a, 0x55, 0x81, 0x3c, 0x25, 0xab, 0xad, 0x3d, 0x4f, 0xa7, 0x1c, 0x3c, 0xc6, 0x28, 0xed, 0x3d, 0x49, 0xd8, 0x06, 0xbe, 0x68, 0xcc, 0xdf, 0x3d, 0x01, 0xf8, 0x3b, 0x3d, 0xa4, 0x28, 0xc6, 0xbd, 0x26, 0x9c, 0x1c, 0xbd, 0x6d, 0xea, 0xf6, 0xbd, 0x75, 0x0d, 0x3f, 0x3d, 0x58, 0xd3, 0x90, 0xbc, 0x4a, 0x17, 0xc1, 0xbd, 0x63, 0x9c, 0xb5, 0x3c, 0x02, 0xfd, 0xd6, 0xbd, 0x09, 0x74, 0x7f, 0x3d, 0xa4, 0xd5, 0x3c, 0x3d, 0x60, 0xa5, 0x04, 0xbd, 0x00, 0x4e, 0x0a, 0xbd, 0x3d, 0x93, 0x4f, 0x3d, 0x4d, 0xd9, 0x92, 0x3d, 0x1d, 0x0b, 0x8c, 0xbb, 0xf5, 0x74, 0x14, 0x3d, 0x25, 0xf2, 0xdb, 0xbd, 0x04, 0xc8, 0xd4, 0x3d, 0x05, 0x4b, 0xd9, 0x3d, 0xf6, 0x57, 0xb5, 0x3b, 0x73, 0x78, 0xc0, 0xbd, 0x56, 0x2d, 0xa7, 0xbd, 0xac, 0x6e, 0xb9, 0xbd, 0x9b, 0x4d, 0x4d, 0xbb, 0x6b, 0x4b, 0xcc, 0xbd, 0xaf, 0x86, 0x8a, 0xbd, 0x85, 0x7c, 0xbe, 0xbd, 0x98, 0x69, 0x8d, 0xbb, 0x94, 0x04, 0xb6, 0x3d, 0xb7, 0x1a, 0xc0, 0x3d, 0x24, 0x46, 0x44, 0x3d, 0x78, 0xe2, 0x1b, 0xbb, 0xf8, 0xd3, 0x11, 0xbd, 0x11, 0x27, 0xf9, 0xbd, 0x56, 0x23, 0x03, 0xbe, 0x92, 0x99, 0x71, 0xbd, 0x48, 0x7e, 0x0a, 0xbe, 0x93, 0xc9, 0x9b, 0xbd, 0x05, 0xfe, 0x33, 0xba, 0xf8, 0x28, 0x00, 0xbd, 0x72, 0x6d, 0xf0, 0x3d, 0x4c, 0x21, 0x2c, 0x3d, 0x9e, 0x4a, 0xc2, 0xbd, 0x93, 0x92, 0xdb, 0x3c, 0x0f, 0x0f, 0x22, 0xbd, 0x2b, 0x94, 0xfa, 0xbd, 0xc6, 0x92, 0x5b, 0x3c, 0x7d, 0xbd, 0x95, 0x3d, 0x6d, 0xe5, 0xab, 0x3d, 0x79, 0x24, 0x23, 0xbc, 0xf0, 0xc9, 0x19, 0xbd, 0x58, 0x64, 0x0c, 0xbe, 0x0c, 0x57, 0x92, 0x3d, 0x57, 0x57, 0xdf, 0xbc, 0x8d, 0x93, 0x26, 0x3b, 0x1c, 0x67, 0xe9, 0x3c, 0xd0, 0x7f, 0xb6, 0xbd, 0x92, 0xd4, 0xf7, 0x3d, 0x03, 0xb5, 0x0f, 0xbd, 0xda, 0x0a, 0x66, 0x3d, 0x1c, 0x9a, 0xab, 0x3d, 0x40, 0x79, 0xe7, 0x3d, 0xa5, 0x24, 0x0f, 0xbe, 0x93, 0xa4, 0xcf, 0x3d, 0x0a, 0xc4, 0xc2, 0x3d, 0x32, 0xfa, 0x6d, 0xbb, 0x65, 0x39, 0x04, 0x3e, 0x72, 0x28, 0xdb, 0x3d, 0x9f, 0x24, 0x00, 0x3e, 0xd9, 0x49, 0xf2, 0x3d, 0x76, 0xb5, 0xbd, 0x3d, 0x0d, 0xd5, 0x15, 0xbe, 0x7b, 0xca, 0xa5, 0x3d, 0xc5, 0x25, 0xdc, 0xbd, 0xf2, 0xc1, 0x32, 0x3d, 0x07, 0xc5, 0x89, 0x3d, 0x48, 0xf8, 0xe7, 0x3d, 0x30, 0xd6, 0x13, 0xbd, 0xcc, 0xcb, 0xca, 0xbd, 0xbc, 0x1d, 0x80, 0xbd, 0x6f, 0x9b, 0xf8, 0x3d, 0x21, 0xea, 0xa4, 0x3b, 0x0b, 0x55, 0xcd, 0xbd, 0x80, 0x5e, 0x98, 0xbc, 0x88, 0x45, 0xc7, 0xbd, 0xc3, 0xa4, 0xba, 0x3d, 0x11, 0x39, 0xce, 0x3c, 0x56, 0x44, 0xf0, 0xbd, 0x65, 0xa8, 0xdd, 0xbd, 0x9c, 0x26, 0xd4, 0xbd, 0xb5, 0x01, 0x80, 0x3d, 0x3a, 0xac, 0xc8, 0xbc, 0x1b, 0x99, 0x9a, 0xbd, 0x7f, 0x7b, 0x5c, 0xbd, 0xd0, 0xd7, 0xe3, 0x3d, 0x42, 0x27, 0xbf, 0xbd, 0xfd, 0x8f, 0xe3, 0xbd, 0x99, 0x46, 0x00, 0x3e, 0xb9, 0x23, 0xa0, 0x3d, 0xb9, 0xeb, 0xcf, 0xbd, 0xb2, 0xa1, 0x5e, 0xbd, 0x87, 0x82, 0xe9, 0x3d, 0xf0, 0x69, 0xcf, 0xbd, 0x79, 0x9d, 0x94, 0x3d, 0x2e, 0x1d, 0x8d, 0x3c, 0x41, 0xd6, 0x07, 0xbe, 0x66, 0x3a, 0xb3, 0x3c, 0xea, 0x54, 0x98, 0x3d, 0x21, 0xc5, 0x92, 0xbd, 0xc1, 0xf5, 0x80, 0x3c, 0x3c, 0x47, 0x34, 0x3c, 0x7f, 0xc1, 0x5c, 0x3c, 0x39, 0x46, 0x18, 0xbe, 0x6f, 0xdc, 0xd0, 0x3d, 0x0c, 0xb5, 0xeb, 0xbd, 0xdc, 0x15, 0xec, 0xbd, 0xbe, 0xa5, 0xbb, 0x3d, 0x40, 0x61, 0xaf, 0xbd, 0x74, 0x69, 0x01, 0x3e, 0x1f, 0x2d, 0x66, 0xbd, 0xcd, 0x38, 0xfb, 0x3d, 0xb4, 0xea, 0xb9, 0x3d, 0x0f, 0xe1, 0xfc, 0x3c, 0xf8, 0x60, 0x13, 0xbe, 0x25, 0x20, 0xc6, 0x3d, 0x27, 0x39, 0x46, 0xbd, 0xaa, 0x91, 0xf5, 0xbd, 0x5f, 0xfe, 0x96, 0x3d, 0x57, 0x29, 0x05, 0xbe, 0xa8, 0x23, 0x1b, 0xbe, 0xe7, 0xd3, 0x12, 0xbd, 0x78, 0xde, 0x3f, 0xbd, 0xd0, 0xad, 0x50, 0xbd, 0xf3, 0x93, 0xef, 0xbd, 0xdd, 0xbd, 0x47, 0xbd, 0xec, 0xc1, 0xc0, 0x3d, 0x6f, 0x44, 0xcc, 0xbd, 0xe0, 0xb7, 0x2c, 0xbd, 0x79, 0xca, 0xcb, 0xbd, 0x2c, 0x92, 0x7d, 0xbd, 0x97, 0xdb, 0xf7, 0xbc, 0x52, 0x2f, 0xd7, 0xbd, 0x2b, 0x6f, 0xe4, 0xbd, 0x1c, 0x33, 0x98, 0xbd, 0x05, 0x73, 0xe8, 0xbd, 0x5c, 0xa4, 0xa0, 0xbd, 0xd5, 0x38, 0x32, 0x3d, 0x6f, 0x4c, 0x5b, 0x3b, 0x0b, 0x0c, 0x7a, 0xbd, 0xf3, 0xd8, 0x2d, 0xbd, 0xf9, 0xaa, 0x96, 0x3d, 0xbe, 0xee, 0xe9, 0x3d, 0xc3, 0xd4, 0x8e, 0x3d, 0x76, 0x10, 0xaa, 0x3d, 0x31, 0x5a, 0x1e, 0x3d, 0x4a, 0x89, 0x79, 0xbd, 0xd6, 0x91, 0x03, 0x3e, 0x6b, 0xec, 0x0d, 0xbe, 0x8d, 0x48, 0x9d, 0x3d, 0xbc, 0xde, 0x0d, 0xbe, 0xc2, 0x63, 0x41, 0xbd, 0xab, 0xad, 0x37, 0x3d, 0xd5, 0x58, 0xef, 0xbc, 0xfc, 0xae, 0xd7, 0xbb, 0xf6, 0xd4, 0x4c, 0xbd, 0x6b, 0xad, 0x0a, 0xbe, 0xe0, 0xba, 0xcf, 0x3d, 0x06, 0x33, 0x94, 0xbd, 0x91, 0x78, 0x63, 0xbd, 0x51, 0xec, 0xea, 0x3d, 0x3e, 0x1c, 0x4e, 0xbd, 0x73, 0x8a, 0x8e, 0x3d, 0xc3, 0xd8, 0x13, 0x3d, 0xc6, 0x8f, 0xb8, 0x3d, 0xdc, 0xb1, 0x24, 0xbd, 0x57, 0x13, 0xc1, 0xbd, 0xc7, 0xb0, 0x6d, 0x3d, 0x8b, 0x4c, 0x13, 0xbe, 0xfb, 0x22, 0x81, 0xbd, 0x6e, 0x63, 0x01, 0xbd, 0x1d, 0xcd, 0x0d, 0xbe, 0xf5, 0x9c, 0xb2, 0xbd, 0xfd, 0x73, 0x80, 0x3d, 0x64, 0x92, 0xc9, 0xbc, 0x6f, 0xe7, 0x07, 0x3e, 0x55, 0x9b, 0xd8, 0x3d, 0x41, 0x42, 0x09, 0x3e, 0x7a, 0xd2, 0xa5, 0xbc, 0x32, 0x50, 0x51, 0x3d, 0xd4, 0x70, 0x01, 0xbd, 0x7c, 0x2a, 0x04, 0xbd, 0x95, 0x76, 0x09, 0x3d, 0x31, 0x7b, 0x6e, 0x3c, 0x96, 0xcd, 0x04, 0xbe, 0x4d, 0x59, 0xbf, 0x3d, 0x86, 0xde, 0xdc, 0xbd, 0xf4, 0x66, 0xd0, 0x3c, 0x61, 0x2d, 0xa7, 0x3d, 0xf4, 0xad, 0x5a, 0xbd, 0x7a, 0x31, 0xe0, 0xbd, 0xa7, 0x62, 0x03, 0xbd, 0x42, 0x85, 0x66, 0x3d, 0x15, 0x3c, 0x32, 0x3d, 0xbb, 0xe9, 0x92, 0x3d, 0x41, 0xa4, 0xa3, 0x3d, 0xf1, 0xf6, 0x08, 0xbe, 0x84, 0x49, 0x05, 0x3e, 0xc2, 0x43, 0x91, 0x3d, 0xc7, 0x67, 0x0c, 0xbd, 0x39, 0x7b, 0x67, 0x3d, 0x1e, 0x66, 0x6c, 0xbd, 0xb7, 0x51, 0xb7, 0x3c, 0xc7, 0x5b, 0xad, 0xbd, 0xa6, 0xc5, 0x3c, 0x3d, 0xb9, 0xa0, 0xe3, 0x3c, 0x6d, 0x7c, 0xd0, 0xbd, 0x33, 0x5f, 0x60, 0xbc, 0xed, 0xc9, 0xaf, 0xbc, 0x98, 0x31, 0xbd, 0xbd, 0x7a, 0x5f, 0xc7, 0xbd, 0xc6, 0x88, 0xd9, 0xbd, 0x26, 0x67, 0xf6, 0x3c, 0x84, 0x40, 0xf4, 0x3c, 0x0e, 0x17, 0x5c, 0xbd, 0x7c, 0x02, 0x52, 0xbd, 0x0d, 0x0c, 0x65, 0xbd, 0x01, 0xa9, 0x89, 0x3d, 0x41, 0x8a, 0x9c, 0x3b, 0x19, 0xe1, 0x65, 0x3d, 0x51, 0x64, 0x6c, 0xbb, 0x99, 0x5d, 0x15, 0xbe, 0x32, 0x9f, 0xf1, 0xbd, 0xff, 0x90, 0x28, 0x3d, 0xb4, 0xda, 0x82, 0x3d, 0x31, 0xb2, 0xc6, 0x3d, 0x90, 0x93, 0xa4, 0x3a, 0x21, 0x16, 0xac, 0xbd, 0xe7, 0xf5, 0xae, 0xbd, 0x52, 0x1d, 0xbe, 0x3d, 0x87, 0xc5, 0xae, 0x3d, 0x69, 0xa3, 0xf7, 0xbd, 0x68, 0x93, 0x87, 0xbd, 0x87, 0x20, 0xa8, 0x3c, 0x79, 0x54, 0xfd, 0xbd, 0x7e, 0xc0, 0xaa, 0x3d, 0x87, 0xdc, 0xc5, 0xbd, 0xdc, 0x6a, 0x15, 0xbd, 0x4d, 0xde, 0xac, 0xbd, 0xa7, 0x58, 0xc8, 0x3c, 0xff, 0xdb, 0x27, 0x3d, 0x62, 0x8e, 0x8c, 0xbd, 0x4c, 0x63, 0x76, 0xbd, 0x83, 0x7f, 0xa6, 0x3d, 0xc6, 0x8e, 0x32, 0xbd, 0x20, 0xf7, 0xfc, 0xbd, 0x0e, 0x2e, 0x09, 0xbe, 0xf3, 0x68, 0x83, 0x3d, 0xbd, 0x2c, 0xd2, 0x3d, 0xbb, 0x44, 0xf7, 0xbd, 0x33, 0xb3, 0xf1, 0xbd, 0x97, 0xd0, 0x99, 0xbb, 0x86, 0xb0, 0xf7, 0xbd, 0x1b, 0x0a, 0x3a, 0x3d, 0xcf, 0xf6, 0x84, 0x3d, 0x64, 0xcf, 0xa1, 0x3d, 0xac, 0x8d, 0x00, 0xbe, 0x69, 0x5e, 0xea, 0xbc, 0xff, 0x2e, 0xcd, 0x3d, 0xa4, 0x47, 0x7a, 0x3d, 0xf3, 0x98, 0x1a, 0xbe, 0x53, 0xa7, 0x4c, 0xbd, 0xf7, 0x13, 0x84, 0xbc, 0xdb, 0x49, 0xef, 0xbb, 0x80, 0x21, 0xa5, 0x3d, 0xef, 0xea, 0x7f, 0xbd, 0x5b, 0xc4, 0x7b, 0xbd, 0x23, 0x60, 0x9a, 0x3d, 0x20, 0xc6, 0x1b, 0xbd, 0x5f, 0xf1, 0xca, 0xbd, 0x8e, 0x97, 0xd2, 0x3d, 0x12, 0xac, 0x3e, 0xbc, 0x9d, 0xdc, 0xe7, 0x3d, 0xc9, 0x50, 0xf4, 0x3d, 0x96, 0xed, 0x69, 0x3d, 0xc7, 0xc3, 0xc0, 0x3d, 0x36, 0xaa, 0x02, 0xbe, 0xad, 0x04, 0x4e, 0x3d, 0xb9, 0x9d, 0x46, 0x3d, 0x09, 0x70, 0x54, 0x3d, 0x81, 0x45, 0x5a, 0xbd, 0x27, 0xc6, 0x8c, 0x3d, 0xfd, 0x1b, 0x87, 0x3d, 0xbf, 0x2f, 0x97, 0xbd, 0x9f, 0x5b, 0x59, 0xbd, 0xe7, 0x02, 0xc4, 0xbd, 0xc0, 0x21, 0x9a, 0x3d, 0xe8, 0x8f, 0x75, 0xbc, 0xc6, 0xff, 0x72, 0xbd, 0xd0, 0x35, 0xe4, 0x3c, 0x4b, 0xc7, 0xd8, 0x3d, 0x2f, 0x95, 0x9d, 0x3d, 0x9c, 0x82, 0xb2, 0xbb, 0x3f, 0xbb, 0xea, 0x3d, 0xe0, 0x96, 0x0a, 0xbd, 0x95, 0x88, 0x67, 0xbd, 0xc2, 0x41, 0xa5, 0x3d, 0xce, 0x49, 0xd6, 0x3d, 0x4d, 0x96, 0x79, 0xbd, 0xb4, 0x36, 0xe2, 0xbd, 0xe0, 0x5b, 0x7a, 0x3d, 0xf9, 0xfe, 0x74, 0xbb, 0xd2, 0xc6, 0xdb, 0x3d, 0x92, 0xc7, 0x57, 0x3d, 0x8c, 0x95, 0x01, 0xbc, 0x6f, 0x4f, 0x04, 0x3e, 0xa5, 0x8c, 0xe5, 0xbc, 0xd9, 0x19, 0x4b, 0x3d, 0x08, 0x65, 0xd7, 0xbb, 0xa0, 0x4c, 0x9c, 0x3d, 0x6f, 0x9e, 0xc9, 0xbd, 0x8d, 0x31, 0xa9, 0x3d, 0xa9, 0x7b, 0x4d, 0x3d, 0xdd, 0x73, 0x13, 0xbe, 0xf5, 0x55, 0xc1, 0x3d, 0x31, 0xc1, 0x56, 0x3d, 0xce, 0x91, 0xb6, 0xbd, 0x29, 0x14, 0x56, 0xbb, 0x04, 0xb1, 0x83, 0xbc, 0xae, 0xc0, 0xcb, 0xbd, 0x97, 0x4a, 0xfc, 0x3d, 0x38, 0x00, 0xad, 0xbc, 0x80, 0xae, 0xb8, 0xbd, 0x8e, 0x4d, 0xaa, 0x3d, 0xa0, 0x24, 0x0a, 0xbd, 0x52, 0x06, 0x2f, 0x3d, 0x5b, 0xe6, 0x37, 0xbd, 0x11, 0xdf, 0xff, 0xbc, 0xe2, 0x36, 0xf2, 0xbc, 0x88, 0xb4, 0x08, 0xbe, 0x24, 0x5e, 0xa7, 0x3b, 0xb1, 0x70, 0xcd, 0xbb, 0xd4, 0xa8, 0xc2, 0x3d, 0x33, 0xcd, 0x2b, 0xbc, 0x26, 0xb9, 0x2a, 0x3d, 0x32, 0x77, 0x30, 0xbd, 0xd1, 0x0e, 0x96, 0xbd, 0xbc, 0x2a, 0xcb, 0x3d, 0x9c, 0x6e, 0x8c, 0xbd, 0x02, 0x33, 0x03, 0xbd, 0xc6, 0x62, 0x69, 0x3d, 0x02, 0x1d, 0x01, 0xbe, 0x92, 0xf7, 0x92, 0xbc, 0x5b, 0x43, 0x8f, 0x3d, 0x52, 0x83, 0x7e, 0xbd, 0xee, 0x40, 0xd4, 0xbd, 0x1b, 0x1a, 0x7e, 0xbd, 0xfc, 0x2b, 0xd1, 0xbc, 0x03, 0xc0, 0xf7, 0xbd, 0x29, 0x9a, 0x56, 0x3d, 0x6e, 0xf5, 0xec, 0xbc, 0xd6, 0x50, 0x04, 0x3e, 0x8b, 0x95, 0x5d, 0x3c, 0x2d, 0x38, 0x99, 0xbc, 0x0b, 0x17, 0x29, 0x3d, 0xe7, 0xe7, 0x77, 0xbd, 0x08, 0xde, 0x49, 0xbd, 0x07, 0x84, 0x64, 0x3d, 0x09, 0x56, 0x31, 0x3d, 0x9a, 0x84, 0xf3, 0x3d, 0xeb, 0xf0, 0xef, 0xbd, 0x5e, 0x01, 0x9b, 0xbd, 0xcc, 0x5b, 0x93, 0x3d, 0x4e, 0x06, 0x0f, 0xbe, 0xc9, 0x26, 0xc7, 0xbd, 0xd3, 0x28, 0x30, 0x3d, 0x42, 0xa1, 0x00, 0x3e, 0xc4, 0x4a, 0x53, 0xbd, 0xb8, 0x18, 0x6c, 0x3d, 0x19, 0xb9, 0x0c, 0x3d, 0x92, 0x70, 0xa1, 0x3b, 0x12, 0x2f, 0x9f, 0xbc, 0x07, 0x7e, 0x89, 0x3d, 0x8e, 0xf6, 0xc0, 0x3d, 0x4a, 0x32, 0x2d, 0x3d, 0x0a, 0x8b, 0x0e, 0xbd, 0x7f, 0xfe, 0x69, 0xbd, 0x35, 0xdd, 0xec, 0x3c, 0x1a, 0x87, 0x07, 0x3e, 0x6a, 0x8c, 0x0f, 0xbe, 0x8b, 0x53, 0x28, 0xbd, 0x8e, 0x37, 0x00, 0x3e, 0xc2, 0xd9, 0xea, 0x3d, 0x26, 0x66, 0xad, 0x3d, 0x8e, 0x6b, 0xbd, 0xbd, 0x1f, 0xf4, 0x35, 0x3d, 0xb9, 0xc8, 0x00, 0x3e, 0x20, 0x5f, 0x61, 0xbd, 0xae, 0xea, 0xa3, 0xbc, 0x95, 0x95, 0x15, 0xbd, 0x0c, 0x74, 0x1a, 0x3e, 0x38, 0x78, 0x1a, 0x3c, 0xba, 0x74, 0x9e, 0x3d, 0x89, 0x32, 0x67, 0x3d, 0x63, 0x66, 0x38, 0x3c, 0x23, 0x9e, 0x05, 0xbd, 0x6e, 0xc7, 0x16, 0xbb, 0x01, 0x4c, 0x65, 0xbd, 0xbf, 0x6a, 0xf3, 0x3c, 0x65, 0xa1, 0xdd, 0x3d, 0x8f, 0x15, 0xb1, 0x3d, 0x3f, 0x75, 0xdd, 0x3d, 0x2b, 0xde, 0xa7, 0x3d, 0x28, 0xf1, 0xb5, 0xbd, 0xb8, 0xff, 0x02, 0x3c, 0x10, 0xe8, 0xb5, 0xbd, 0x34, 0xb8, 0x06, 0xbe, 0x18, 0x93, 0x0a, 0x3e, 0x68, 0x71, 0x56, 0x3d, 0x82, 0x87, 0x6f, 0x3c, 0x0b, 0x53, 0xcd, 0xbb, 0x49, 0x1c, 0x1c, 0xbd, 0xd3, 0xf6, 0xa0, 0xbd, 0x0f, 0x6b, 0xc3, 0xbd, 0xb8, 0x5c, 0xea, 0xbd, 0x8d, 0x31, 0x00, 0x3e, 0x49, 0x0a, 0x6e, 0xbd, 0x6e, 0x5a, 0xf3, 0xbd, 0x92, 0x2d, 0xe4, 0xbc, 0x87, 0x94, 0xa3, 0x3b, 0x77, 0x6c, 0xfc, 0x3b, 0x6b, 0x21, 0x1d, 0xbd, 0xd7, 0x16, 0xfb, 0xbd, 0x29, 0x4b, 0xc8, 0xbd, 0x9e, 0x5e, 0x03, 0x3e, 0xa0, 0xcc, 0x89, 0x3d, 0x20, 0xb9, 0x7b, 0xbc, 0x8a, 0x86, 0x32, 0xbd, 0x2a, 0x04, 0x82, 0x3c, 0x6e, 0x16, 0x22, 0xbd, 0xb9, 0x61, 0x58, 0x3d, 0x93, 0x61, 0x26, 0xbd, 0xb2, 0x3f, 0x22, 0x3e, 0xbb, 0x79, 0xdf, 0x3d, 0xf6, 0x1f, 0x78, 0x3d, 0x7a, 0x06, 0x00, 0x3e, 0x16, 0x34, 0x99, 0x3d, 0x00, 0x15, 0xe1, 0xbb, 0x17, 0x52, 0x9a, 0xbd, 0xe7, 0x7f, 0x14, 0x3e, 0x98, 0xaa, 0x2d, 0xbd, 0xba, 0xd4, 0xe9, 0xbd, 0xf6, 0xb6, 0xa8, 0xbd, 0x26, 0xa9, 0x8b, 0x3d, 0xfa, 0xf6, 0xab, 0x3d, 0x92, 0xf2, 0x1c, 0x3e, 0xbf, 0xd4, 0x76, 0xbd, 0xea, 0x66, 0x98, 0xbd, 0xab, 0x50, 0xdb, 0x3d, 0xb7, 0xd7, 0xe8, 0x3d, 0x28, 0x27, 0xe4, 0xbd, 0xb7, 0xa5, 0x94, 0xbc, 0x1c, 0xc3, 0xc2, 0x3d, 0x8e, 0x43, 0x0f, 0xbc, 0xa7, 0x60, 0xab, 0x3d, 0xea, 0xfb, 0xb7, 0xbd, 0xb2, 0xd1, 0xa3, 0xbc, 0x13, 0xc4, 0x89, 0x3d, 0x49, 0xfa, 0xf0, 0xbd, 0xa4, 0xee, 0x46, 0x3b, 0x2a, 0x7c, 0x0d, 0xbd, 0xdf, 0x0d, 0xc3, 0x3d, 0xa1, 0x2b, 0x18, 0xbd, 0xae, 0xbe, 0xda, 0x3d, 0x54, 0xc2, 0xc1, 0xbd, 0xf2, 0x0b, 0x59, 0xbd, 0xbd, 0x0f, 0xb8, 0xbd, 0x89, 0xcf, 0xf9, 0xbd, 0xcf, 0xcc, 0xa6, 0xbd, 0x6c, 0x29, 0x96, 0x3c, 0x61, 0x95, 0x92, 0x3d, 0xbb, 0x3e, 0xa2, 0xbc, 0xa9, 0x12, 0xcb, 0x3d, 0xaa, 0xe2, 0x04, 0x3e, 0xd1, 0xe8, 0xb2, 0x3d, 0xc1, 0xa7, 0xc8, 0x3d, 0xaf, 0x4c, 0x24, 0xbc, 0xee, 0x97, 0x43, 0xbd, 0xf4, 0x52, 0x46, 0x3b, 0x33, 0xf0, 0x29, 0x3d, 0x4d, 0xc8, 0x0d, 0x3e, 0x4a, 0xdd, 0x59, 0xbd, 0xf8, 0x18, 0xa0, 0x3c, 0xcb, 0xc3, 0x4f, 0x3d, 0x68, 0x22, 0x14, 0x3e, 0x29, 0xa6, 0x5c, 0xbc, 0xa8, 0x92, 0x76, 0xbd, 0xeb, 0x1a, 0x43, 0xbd, 0xc8, 0x21, 0x11, 0x3e, 0xa3, 0x2f, 0x53, 0xbd, 0xc4, 0x54, 0xaf, 0xbd, 0x50, 0x0a, 0x8c, 0x3d, 0x90, 0x29, 0x3e, 0x3d, 0xab, 0x35, 0xcb, 0xbd, 0x1d, 0xfa, 0xc0, 0x3d, 0x94, 0x2d, 0x99, 0xbd, 0xca, 0x89, 0xdb, 0xbd, 0x58, 0xf3, 0xed, 0xbd, 0xbf, 0xce, 0xd8, 0x3d, 0x9a, 0xff, 0x01, 0x3d, 0x31, 0x49, 0xe4, 0xbc, 0x1b, 0x8e, 0xf8, 0x3c, 0x0b, 0x43, 0x89, 0xbc, 0xed, 0x2d, 0xce, 0x3c, 0xdf, 0x76, 0xd8, 0xbc, 0x0f, 0x6a, 0xde, 0x3d, 0xa9, 0xab, 0x90, 0xbd, 0xdb, 0x81, 0x4c, 0xbd, 0x62, 0x33, 0xd5, 0xbd, 0x55, 0xe7, 0x16, 0x3e, 0x57, 0xb9, 0x88, 0x3d, 0x5b, 0xd2, 0x88, 0x3c, 0x15, 0x41, 0x0b, 0xbd, 0xe7, 0xc4, 0xdb, 0x3d, 0x15, 0x7d, 0x9b, 0xbc, 0xe2, 0x1b, 0x03, 0xbe, 0x3d, 0xfa, 0xa5, 0x3c, 0xf6, 0x43, 0x1e, 0x3e, 0x78, 0xad, 0xd6, 0x3d, 0x2b, 0x77, 0xc4, 0x3d, 0x28, 0x77, 0xe2, 0xbd, 0x8a, 0x49, 0xa1, 0x3d, 0xe0, 0xcb, 0xea, 0xbc, 0xab, 0x2b, 0x0b, 0x3e, 0x47, 0x27, 0x48, 0x3d, 0x27, 0x7a, 0x10, 0x3e, 0x30, 0x70, 0x8d, 0xbb, 0x63, 0x81, 0xcf, 0xbd, 0x04, 0x5e, 0xba, 0xbb, 0x72, 0x39, 0x35, 0x3d, 0xf8, 0x9b, 0x42, 0x3c, 0x40, 0xec, 0xd0, 0xbd, 0x34, 0xfd, 0x94, 0xbb, 0x24, 0x76, 0xfb, 0xbd, 0x17, 0x44, 0xa1, 0x3d, 0x80, 0x91, 0xcb, 0xbd, 0xec, 0x1f, 0xff, 0x3c, 0x2f, 0x27, 0xc3, 0xbd, 0x4a, 0xe6, 0x5a, 0x3d, 0xaa, 0x5e, 0x07, 0xbc, 0x0d, 0xae, 0x62, 0x3d, 0xd6, 0x61, 0xe8, 0xbd, 0x72, 0xf9, 0xfe, 0x3d, 0x29, 0x9d, 0xe4, 0x3d, 0x8b, 0x0f, 0xee, 0x3d, 0x47, 0x81, 0xe4, 0xbd, 0xdb, 0x50, 0x73, 0x3c, 0x1b, 0xa0, 0x93, 0xbd, 0x84, 0x41, 0x89, 0xbd, 0x15, 0xdc, 0x27, 0xbc, 0xf7, 0x70, 0x65, 0xbd, 0xc7, 0x85, 0x1c, 0x3d, 0x4d, 0x9b, 0x12, 0x3e, 0xff, 0xd4, 0xc8, 0x3d, 0xfc, 0xf9, 0x8c, 0xbc, 0x7c, 0xe4, 0x03, 0x3d, 0x0c, 0xc8, 0xf0, 0xbd, 0xf1, 0xb1, 0x6c, 0x3d, 0xef, 0x91, 0x0d, 0x3e, 0x65, 0xe6, 0x67, 0xbd, 0xfe, 0xa7, 0xb0, 0xbd, 0x1e, 0x93, 0x06, 0x3e, 0x92, 0xb2, 0xff, 0x3c, 0x4d, 0x14, 0x82, 0x3d, 0x81, 0xd2, 0x82, 0x3d, 0x84, 0x31, 0xc1, 0xbd, 0xb0, 0xa8, 0x03, 0x3b, 0xd3, 0x4d, 0x1a, 0x3e, 0x33, 0x28, 0xd5, 0xbc, 0x5a, 0x73, 0xdf, 0xbd, 0x16, 0x15, 0x7d, 0x3d, 0x7e, 0xf4, 0xe2, 0xbc, 0xe7, 0x9e, 0x0c, 0xbb, 0x0e, 0xc1, 0x06, 0x3d, 0x07, 0x6a, 0xd2, 0xb9, 0x4d, 0x7d, 0x97, 0xbd, 0x7e, 0x76, 0x01, 0xbd, 0xb2, 0x27, 0xde, 0xbd, 0x79, 0x5f, 0x0f, 0x3e, 0xaa, 0xcd, 0xf9, 0x3d, 0x28, 0x16, 0xc5, 0xbd, 0x4c, 0xda, 0x20, 0x3e, 0xac, 0x6a, 0xdf, 0x3d, 0x19, 0x29, 0xab, 0x3d, 0x49, 0x10, 0xb7, 0xbd, 0x5b, 0xec, 0x14, 0x3e, 0x26, 0xd2, 0x48, 0x3d, 0x18, 0xb3, 0xbe, 0x3d, 0xc9, 0x59, 0x53, 0xbb, 0x65, 0x9b, 0xf6, 0x3d, 0xba, 0xed, 0x0b, 0x3d, 0x8a, 0xab, 0xf9, 0x3d, 0x42, 0x07, 0x8a, 0xbc, 0x05, 0x78, 0x19, 0xbc, 0xb6, 0x31, 0xff, 0x3b, 0xf3, 0xb7, 0x89, 0x3c, 0xda, 0xa1, 0x42, 0xbc, 0x4e, 0xbb, 0xb7, 0xba, 0x0b, 0xbe, 0x13, 0x3e, 0xa3, 0x3b, 0x8b, 0x3d, 0x47, 0x53, 0x42, 0xbd, 0xdd, 0x60, 0xd0, 0x3d, 0xb6, 0x28, 0x53, 0xbd, 0xbc, 0x36, 0xb2, 0x3d, 0x93, 0x26, 0x86, 0xbc, 0x63, 0xf2, 0xb1, 0x3d, 0x29, 0xea, 0xa5, 0xbd, 0xa6, 0x6d, 0x8b, 0x3d, 0xdc, 0x3e, 0x80, 0xbd, 0xbc, 0xa3, 0x82, 0xbd, 0x36, 0xd4, 0x08, 0xbc, 0x90, 0x68, 0x6b, 0xbd, 0x96, 0x1e, 0x35, 0xbd, 0xa0, 0x3d, 0x88, 0xbd, 0xeb, 0x4e, 0x3b, 0xbd, 0xde, 0xdf, 0x26, 0x3d, 0x4a, 0xdb, 0xf3, 0xbd, 0x93, 0x89, 0xce, 0x3d, 0x56, 0x0e, 0x61, 0xbd, 0xd2, 0x13, 0x38, 0x3c, 0x9e, 0xc5, 0xca, 0xbd, 0x45, 0xef, 0xbf, 0x3d, 0x82, 0x12, 0xd3, 0x3d, 0x17, 0xb1, 0xbe, 0x3a, 0x5f, 0xcb, 0x12, 0x3e, 0x17, 0xd9, 0xf9, 0xbc, 0x41, 0x37, 0x75, 0x3d, 0x13, 0x38, 0x43, 0xbd, 0x08, 0x90, 0x99, 0x3c, 0x14, 0xea, 0x18, 0x3d, 0x8a, 0x72, 0x53, 0xbd, 0x09, 0x4c, 0x05, 0x3e, 0x61, 0xa4, 0xcd, 0xbd, 0x5d, 0x70, 0xfe, 0xbd, 0x8c, 0x8e, 0xbe, 0x3d, 0x75, 0xe1, 0x08, 0x3e, 0x82, 0xf8, 0xfe, 0xbd, 0x99, 0x4a, 0x9d, 0x3d, 0xc4, 0xa6, 0xff, 0xbd, 0xa2, 0xf7, 0x89, 0x3d, 0xb6, 0x8a, 0xe0, 0xbc, 0xdf, 0xa5, 0xe2, 0x3d, 0x24, 0xf1, 0xab, 0xbd, 0x2f, 0xbc, 0x09, 0x3d, 0x0e, 0x4d, 0x86, 0x3c, 0x75, 0x5d, 0xae, 0x3d, 0x74, 0xf9, 0xa7, 0x3d, 0x1c, 0x46, 0xac, 0xbd, 0x75, 0x8f, 0x46, 0x3d, 0xee, 0xb4, 0x11, 0x3d, 0xc0, 0xdb, 0x0e, 0xbe, 0xb1, 0x94, 0x29, 0x3c, 0xe8, 0x00, 0x0e, 0xbd, 0xcc, 0xda, 0xad, 0xbc, 0xb5, 0xb5, 0x11, 0x3e, 0x70, 0x3d, 0x9f, 0xbd, 0x13, 0x5d, 0x94, 0xbd, 0x6c, 0x19, 0x1f, 0x3a, 0xea, 0xde, 0x0f, 0xbe, 0x5d, 0x18, 0xec, 0x3c, 0x34, 0x12, 0x49, 0x3d, 0xc0, 0xfe, 0x03, 0x3e, 0xd4, 0x0f, 0xd8, 0x3d, 0xa8, 0x28, 0x9f, 0xbd, 0x8f, 0x19, 0x01, 0x3e, 0xa1, 0x03, 0xe0, 0x3d, 0xc3, 0x71, 0xa7, 0xbb, 0x40, 0x33, 0x0e, 0xbe, 0x5d, 0x09, 0x42, 0x3b, 0xe6, 0x27, 0xd9, 0xbb, 0xb7, 0x41, 0x03, 0xbe, 0x84, 0x97, 0xb8, 0x3d, 0xce, 0xc8, 0x8a, 0x3d, 0x46, 0x26, 0xc6, 0xbd, 0xc7, 0x69, 0x5b, 0x3d, 0x3b, 0xe8, 0x64, 0x3d, 0x38, 0xce, 0xb7, 0xbc, 0x0a, 0x62, 0x0f, 0xbe, 0xb3, 0x96, 0x9d, 0xbd, 0x9b, 0x8e, 0x0f, 0x3c, 0x82, 0xee, 0xfc, 0xbc, 0x21, 0xd7, 0xb7, 0xbd, 0x1c, 0xc1, 0xe2, 0x3d, 0xc6, 0x0c, 0xe6, 0x3d, 0xc0, 0x29, 0x00, 0x3e, 0x37, 0x72, 0xa7, 0xbc, 0x26, 0x44, 0x99, 0xbd, 0x7b, 0x93, 0xf3, 0x3b, 0x2d, 0x0b, 0x37, 0xbd, 0x8c, 0xe2, 0xda, 0x3d, 0x8d, 0xf4, 0x44, 0x3d, 0x50, 0x29, 0x14, 0xbd, 0x00, 0xea, 0x60, 0x3d, 0x9a, 0x5e, 0x81, 0xbd, 0x64, 0x1e, 0x6a, 0xbd, 0x5a, 0x2d, 0x59, 0xbd, 0xb2, 0x0d, 0xb7, 0xbc, 0x75, 0xa3, 0xaa, 0x3c, 0xd6, 0xa1, 0xf1, 0x3d, 0x28, 0x74, 0xff, 0xbd, 0x98, 0x9d, 0x2b, 0xbd, 0xda, 0xef, 0x89, 0xbd, 0xad, 0x61, 0x78, 0xbc, 0x37, 0x84, 0x8e, 0xbd, 0x6f, 0xe6, 0xcc, 0xbc, 0x18, 0xea, 0x3e, 0x3c, 0xc1, 0x9d, 0x66, 0x3c, 0x73, 0xf7, 0xc3, 0x3d, 0x59, 0xf6, 0xeb, 0xbd, 0x10, 0xe0, 0xbf, 0x3d, 0x56, 0xb7, 0x93, 0x3d, 0x4e, 0x90, 0x16, 0xbe, 0xdc, 0x91, 0xf0, 0xbd, 0x91, 0x32, 0xa4, 0x3d, 0xe7, 0xea, 0xd4, 0x3d, 0xab, 0x4d, 0xd9, 0x3c, 0xf1, 0x33, 0xd7, 0x3d, 0x59, 0x1e, 0x09, 0xbe, 0xa2, 0xf5, 0x6a, 0xbc, 0xdf, 0xb1, 0x4b, 0x3c, 0x27, 0x0d, 0xa0, 0x3d, 0xae, 0x4b, 0x1d, 0xbd, 0xb5, 0x86, 0x14, 0xbd, 0xe3, 0x75, 0xea, 0xbc, 0xd8, 0x86, 0xb5, 0xbc, 0xf5, 0x1d, 0xf6, 0x3d, 0xcd, 0xd8, 0xfe, 0x3c, 0x5a, 0x91, 0x6f, 0xba, 0xf9, 0x2d, 0x93, 0x3d, 0x01, 